<unk>	0
<s>	0
</s>	0
.	-1.58393
com	-2.62502
▁	-3.19197
-	-3.47572
s	-4.09107
▁www	-4.12012
net	-4.3195
pl	-4.57344
o	-4.85869
co	-5.33
a	-5.34246
e	-5.36262
d	-5.37229
2	-5.45651
i	-5.50492
ad	-5.5218
us	-5.61914
y	-5.72379
in	-5.76323
b	-5.77244
c	-5.84186
x	-5.84213
m	-5.85437
de	-5.86828
p	-5.8758
ru	-5.87766
info	-5.88832
▁ads	-5.91326
org	-5.94117
app	-5.94338
4	-5.95562
l	-5.95842
7.	-5.98374
▁ad	-6.02771
g	-6.06923
ads	-6.09209
1.	-6.10473
t	-6.122
z	-6.1311
er	-6.13223
r	-6.15866
v	-6.20565
eu	-6.25115
br	-6.29839
uk	-6.31041
online	-6.31431
k	-6.32525
n	-6.35376
it	-6.36852
1	-6.37352
es	-6.38213
media	-6.38633
f	-6.39548
id	-6.39964
webhost	-6.43252
at	-6.44146
w	-6.46302
live	-6.49055
.000	-6.49283
0	-6.49342
3	-6.50785
.112.2	-6.51584
au	-6.51596
jp	-6.52667
web	-6.52688
ing	-6.57741
5	-6.578
vn	-6.59021
h	-6.60046
u	-6.60399
▁s	-6.63549
▁a	-6.63869
ro	-6.65767
me	-6.70174
io	-6.71716
to	-6.72437
ca	-6.72723
blog	-6.72877
▁c	-6.73129
8	-6.74667
▁m	-6.75014
intell	-6.75396
za	-6.7581
itxt	-6.76269
my	-6.76601
na	-6.76646
re	-6.76798
xyz	-6.7948
is	-6.80322
spot	-6.80699
2.	-6.80702
▁e	-6.81937
ga	-6.82213
fr	-6.87227
go	-6.87682
ch	-6.9114
on	-6.91231
6	-6.91272
tech	-6.91513
site	-6.91604
cn	-6.91779
7	-6.95227
24.	-6.98593
ma	-6.99505
al	-7.00104
ar	-7.00122
am	-7.01113
pro	-7.01759
an	-7.04009
tk	-7.04154
nl	-7.06175
en	-7.06819
mo	-7.06859
ve	-7.07025
ka	-7.07274
advertising	-7.07379
te	-7.08049
tv	-7.08696
▁cdn	-7.10012
ero	-7.10485
3.	-7.11502
ne	-7.12582
q	-7.14245
click	-7.14721
9	-7.14741
▁w	-7.14937
j	-7.15736
le	-7.16064
la	-7.17938
or	-7.19315
free	-7.19412
top	-7.20768
be	-7.21673
st	-7.2185
▁d	-7.21875
▁b	-7.22376
no	-7.24125
da	-7.24357
lo	-7.24396
ed	-7.25142
▁t	-7.25304
▁g	-7.2538
as	-7.26874
ta	-7.28391
api	-7.2861
cdn	-7.30053
8.	-7.31718
▁i	-7.31746
se	-7.31876
tr	-7.32288
ml	-7.33323
biz	-7.36346
account	-7.3638
ly	-7.37429
li	-7.38448
im	-7.38575
the	-7.3962
ba	-7.40658
il	-7.41448
and	-7.41723
apple	-7.42137
link	-7.44502
ra	-7.44746
▁p	-7.45531
hu	-7.46058
ty	-7.46698
ti	-7.47384
club	-7.47555
news	-7.48174
do	-7.48857
cf	-7.4969
sa	-7.49726
cc	-7.50384
hit	-7.50496
▁api	-7.50504
cz	-7.5122
ri	-7.51367
122.	-7.52085
dc	-7.52717
ac	-7.52818
hitbox	-7.52846
service	-7.52848
ko	-7.53705
di	-7.53908
ir	-7.54089
▁adserver	-7.54755
up	-7.56976
ia	-7.58197
▁track	-7.58834
pa	-7.59854
mi	-7.61311
el	-7.62111
update	-7.64025
counter	-7.64487
mobile	-7.66174
man	-7.66526
login	-7.66538
▁app	-7.66927
pe	-7.67014
tt	-7.67664
secure	-7.67737
lu	-7.68184
ze	-7.68563
cl	-7.68645
▁my	-7.6963
ry	-7.69962
center	-7.70402
os	-7.70493
th	-7.70633
ab	-7.70677
▁f	-7.70695
box	-7.7092
you	-7.71189
google	-7.71655
stats	-7.72164
ip	-7.72657
for	-7.72837
ie	-7.72929
fi	-7.73329
ki	-7.73368
ce	-7.74119
group	-7.75071
▁k	-7.75249
▁l	-7.75936
ni	-7.77343
ja	-7.77707
bo	-7.78456
pw	-7.78962
tracking	-7.79141
▁j	-7.79391
ny	-7.7941
stat	-7.80132
24	-7.80498
one	-7.80858
ter	-7.81685
ek	-7.81749
▁secure	-7.81828
bid	-7.81908
ds	-7.82081
su	-7.8216
5.	-7.82454
▁v	-7.82949
▁the	-7.83191
um	-7.83431
9.	-7.83752
un	-7.83769
▁r	-7.83958
log	-7.84911
▁z	-7.8505
▁media	-7.85209
▁static	-7.85439
tm	-7.85953
vi	-7.86717
cloud	-7.87073
prod	-7.87434
now	-7.87556
gr	-7.87825
bank	-7.8816
best	-7.88224
ap	-7.88237
ha	-7.88352
bi	-7.88793
ua	-7.89253
et	-7.89386
microsoft	-7.89431
tracker	-7.89478
si	-7.89683
shop	-7.89802
mp	-7.90089
ent	-7.90119
dns	-7.9018
ku	-7.90729
ke	-7.90909
fe	-7.90949
po	-7.91046
track	-7.91233
network	-7.91345
eget	-7.91386
ur	-7.91672
ge	-7.9243
services	-7.92526
ic	-7.92858
openx	-7.92946
mobi	-7.93404
of	-7.9348
ec	-7.93901
sex	-7.94619
support	-7.94837
ho	-7.95635
srv	-7.96308
space	-7.96349
doubleclick	-7.96442
▁re	-7.9666
hi	-7.96697
data	-7.97029
son	-7.97237
sc	-7.97265
▁n	-7.97432
tu	-7.9747
polska	-7.9759
wa	-7.97604
nt	-7.97684
ci	-7.97833
ai	-7.97853
he	-7.98735
vo	-7.98766
review	-7.99083
mdn	-7.99227
search	-7.99347
ng	-7.99394
ow	-7.99841
▁stats	-8.00143
gq	-8.00585
fa	-8.00824
ex	-8.01028
world	-8.01127
ion	-8.01469
6.	-8.01586
rs	-8.0167
▁h	-8.0189
store	-8.02395
serv	-8.02421
00	-8.03135
▁paypal	-8.03181
adtech	-8.03695
ue	-8.03759
kr	-8.04636
omtr	-8.04726
az	-8.06298
ee	-8.06548
design	-8.06652
digital	-8.07002
by	-8.07363
ers	-8.07694
win	-8.07724
we	-8.08471
▁web	-8.08541
▁x	-8.08735
▁metrics	-8.08867
ang	-8.09057
15.	-8.09238
pi	-8.09941
adserver	-8.10005
server	-8.10096
img	-8.10205
mb	-8.10894
get	-8.11057
ak	-8.11057
trade	-8.11365
sh	-8.11897
traffic	-8.12088
new	-8.12138
ct	-8.12359
cash	-8.13246
pt	-8.13284
play	-8.13501
em	-8.13702
▁safety	-8.13763
ok	-8.14452
va	-8.14455
▁analytics	-8.14458
▁go	-8.14831
▁ma	-8.14853
home	-8.1518
fast	-8.15249
inc	-8.15529
sp	-8.16018
ik	-8.16182
bd	-8.16263
star	-8.16708
content	-8.16925
pc	-8.17523
smart	-8.17525
help	-8.17652
aws	-8.17702
op	-8.17813
gi	-8.18693
edge	-8.18809
15	-8.1886
▁mobile	-8.18926
ment	-8.19023
10.	-8.19358
ul	-8.19415
download	-8.19577
1-	-8.1983
zy	-8.20088
ag	-8.21093
land	-8.21393
stream	-8.21431
system	-8.2203
gemi	-8.22151
security	-8.22235
ya	-8.223
▁tracking	-8.22538
ck	-8.23127
your	-8.23218
all	-8.23231
bb	-8.23253
ol	-8.23454
16	-8.23541
▁free	-8.23571
host	-8.23611
pop	-8.23864
jo	-8.244
amazon	-8.24515
analytics	-8.2458
wi	-8.25116
con	-8.25408
life	-8.25458
▁js	-8.25539
bu	-8.2562
nu	-8.27312
zz	-8.27763
fb	-8.28071
usa	-8.28352
out	-8.28879
rt	-8.29687
video	-8.30092
sz	-8.30371
▁u	-8.30619
cu	-8.30705
car	-8.30817
01.	-8.30946
sk	-8.30965
pay	-8.3127
line	-8.31363
ns	-8.315
ana	-8.3179
name	-8.31819
game	-8.3222
power	-8.323
soft	-8.32526
▁counter	-8.3255
swr	-8.32785
match	-8.3366
tor	-8.34107
je	-8.34622
▁log	-8.35061
east	-8.35174
main	-8.35289
mar	-8.35324
11.	-8.35506
page	-8.35745
global	-8.3614
▁online	-8.36499
serve	-8.3687
per	-8.36962
offer	-8.36983
ps	-8.37473
engine	-8.37734
cm	-8.37755
nie	-8.38449
hd	-8.38531
ez	-8.38899
ah	-8.38945
cy	-8.39486
port	-8.39598
▁as	-8.39991
bl	-8.40384
wy	-8.40397
edu	-8.41134
ig	-8.41153
sdk	-8.4118
▁de	-8.41293
ll	-8.41385
mob	-8.4144
ver	-8.41485
18	-8.41775
art	-8.41777
iad	-8.42667
du	-8.42877
ji	-8.43127
yhd	-8.43189
▁banners	-8.43345
od	-8.43368
ph	-8.4345
otomi	-8.43727
▁al	-8.43893
iq	-8.4399
dk	-8.44044
verify	-8.44432
tra	-8.4445
qq	-8.44713
office	-8.44878
30	-8.45024
dj	-8.45078
▁oascentral	-8.45585
▁ehg	-8.45629
000	-8.46144
ation	-8.46166
ks	-8.46452
banner	-8.46955
js	-8.47007
market	-8.4706
website	-8.47254
test	-8.47316
▁sdk	-8.47322
user	-8.47335
ut	-8.47419
pu	-8.47663
ssl	-8.47678
ot	-8.47883
zi	-8.47924
our	-8.47974
▁la	-8.48118
▁click	-8.4846
▁pa	-8.48769
12.	-8.4888
aria	-8.48968
nz	-8.49223
lt	-8.49575
▁1	-8.4995
▁st	-8.50128
gl	-8.50149
west	-8.50648
games	-8.50735
ncj	-8.5096
kurier	-8.512
der	-8.51511
2018	-8.51997
▁img	-8.52202
marketo	-8.52437
air	-8.52583
dropbox	-8.52756
so	-8.52914
▁data	-8.53026
mu	-8.54067
yahoo	-8.54116
pk	-8.54222
apps	-8.54268
▁in	-8.54551
key	-8.5529
auth	-8.55499
bar	-8.55586
gu	-8.55743
dr	-8.55794
master	-8.55912
fun	-8.55915
af	-8.55942
20	-8.56034
ier	-8.56095
hot	-8.56107
dm	-8.56324
dy	-8.56416
mx	-8.56564
push	-8.56687
city	-8.56884
cs	-8.56899
mail	-8.56923
▁apple	-8.57272
hr	-8.57625
34	-8.57826
studio	-8.58027
auto	-8.58159
sy	-8.58223
fo	-8.58665
▁ca	-8.58678
oewa	-8.58732
▁pro	-8.58797
ws	-8.58855
ant	-8.58864
asia	-8.58895
ix	-8.58957
▁banner	-8.59198
iz	-8.59426
ts	-8.5979
static	-8.59916
acc	-8.60197
business	-8.60259
omniture	-8.6026
tan	-8.60307
om	-8.60352
post	-8.60363
tri	-8.6038
uc	-8.60733
19	-8.61094
▁na	-8.61261
▁sa	-8.62105
▁signin	-8.62239
11	-8.62423
mag	-8.62426
travel	-8.62467
ton	-8.6276
ff	-8.62842
pr	-8.62853
han	-8.63085
view	-8.63276
telemetry	-8.63472
ep	-8.63624
res	-8.63657
san	-8.63752
ong	-8.63863
her	-8.64381
▁new	-8.64502
▁be	-8.64693
admicro	-8.65375
13	-8.65462
ms	-8.65485
fjr	-8.65636
chi	-8.65941
14.	-8.66286
direct	-8.66694
yo	-8.66715
science	-8.66796
02	-8.67048
trk	-8.67186
ud	-8.67451
ten	-8.6755
notif	-8.67782
ster	-8.67837
mac	-8.67882
checkm	-8.67962
▁y	-8.68086
card	-8.68491
wo	-8.68509
▁te	-8.68771
red	-8.68799
cba	-8.68842
45	-8.68931
pp	-8.69046
men	-8.69441
▁facebook	-8.69508
tag	-8.6965
share	-8.69851
film	-8.69857
vu	-8.70014
gg	-8.70022
nik	-8.70131
msad	-8.70156
▁ka	-8.70564
sys	-8.70655
paypal	-8.70659
23	-8.70668
▁ss	-8.70751
qu	-8.70949
pal	-8.7103
gh	-8.71067
let	-8.71102
baidu	-8.71108
yt	-8.71249
cha	-8.71259
mm	-8.71301
ali	-8.71619
file	-8.71954
ity	-8.71963
dt	-8.72046
gra	-8.72049
▁tr	-8.72081
ine	-8.7215
17	-8.72501
ler	-8.72708
tion	-8.72735
hub	-8.73055
ung	-8.73313
aj	-8.73338
bg	-8.73677
mas	-8.73692
information	-8.73797
▁ro	-8.74257
sklep	-8.74703
39	-8.74737
ju	-8.74766
nrj	-8.74768
work	-8.74963
▁get	-8.75306
ist	-8.756
ug	-8.75605
over	-8.7562
ace	-8.75849
plus	-8.76128
fakty	-8.76252
sn	-8.76463
36	-8.7672
hol	-8.76866
tail	-8.77167
internet	-8.77431
ea	-8.77485
ye	-8.77543
pra	-8.77642
ddns	-8.77678
▁fb	-8.7776
tz	-8.77906
nd	-8.78004
▁do	-8.78106
ren	-8.7812
est	-8.78272
find	-8.78288
platform	-8.78413
solutions	-8.78501
rn	-8.78812
day	-8.78987
▁sp	-8.79172
dom	-8.79187
ncdn	-8.79281
team	-8.79838
roll	-8.80031
01	-8.80072
12	-8.80276
worldwide	-8.80333
check	-8.80393
54	-8.80428
mg	-8.80557
tw	-8.81004
facebook	-8.8114
jfn	-8.81215
sg	-8.81283
little	-8.81296
adloox	-8.81297
marketing	-8.81497
portal	-8.81666
07	-8.81697
inter	-8.81875
nia	-8.8191
adobes	-8.8191
13.	-8.82207
path	-8.82348
ew	-8.8253
nk	-8.82594
mer	-8.82775
pages	-8.82789
-59	-8.82887
67	-8.82897
ay	-8.83021
ani	-8.83098
dl	-8.83295
▁service	-8.83407
manager	-8.83446
reward	-8.83655
cam	-8.83744
dex	-8.83776
str	-8.83795
nc	-8.83871
care	-8.84117
▁ac	-8.84123
bit	-8.84175
oferta	-8.84269
eng	-8.84329
point	-8.8438
hulu	-8.84504
fl	-8.84625
cr	-8.84931
book	-8.85041
wf	-8.85301
ky	-8.85646
icu	-8.85785
rr	-8.85953
today	-8.86009
14	-8.86174
gen	-8.86184
count	-8.86243
health	-8.86298
imr	-8.86375
bn	-8.86564
msn	-8.86958
med	-8.87035
zone	-8.87134
▁geo	-8.87144
ou	-8.87175
verification	-8.87382
police	-8.87385
▁so	-8.8748
uj	-8.87696
▁play	-8.88132
dem	-8.88203
pub	-8.88237
safe	-8.8829
cq	-8.88309
har	-8.8839
ara	-8.88409
ae	-8.88526
cp	-8.88662
love	-8.88885
gdn	-8.88954
09	-8.89016
kcn	-8.89127
▁ja	-8.89293
ian	-8.89298
pipe	-8.89391
▁slimxxxtube	-8.89423
zo	-8.8946
central	-8.89464
reddit	-8.89481
sms	-8.89652
music	-8.89701
ov	-8.8982
india	-8.89855
▁adv	-8.90146
mon	-8.90226
project	-8.90487
▁mo	-8.90488
xi	-8.90516
▁top	-8.90663
vip	-8.9068
▁ar	-8.90793
civ	-8.91282
38	-8.91402
▁ww	-8.91427
78	-8.9148
well	-8.9176
lk	-8.91832
ash	-8.91893
pol	-8.92126
yu	-8.92291
way	-8.92403
mc	-8.92407
05	-8.92494
mn	-8.92624
house	-8.92747
aka	-8.92818
iv	-8.92919
press	-8.93162
av	-8.93258
fc	-8.93265
eby	-8.93311
ib	-8.93366
▁me	-8.93456
▁ba	-8.9348
iti	-8.93491
▁mi	-8.93539
ger	-8.9363
files	-8.94093
vista	-8.94136
les	-8.94237
access	-8.94349
gb	-8.94499
▁bo	-8.94524
zu	-8.94687
▁update	-8.947
list	-8.94808
▁an	-8.94878
88	-8.9512
▁li	-8.9522
lar	-8.95229
tic	-8.9534
sen	-8.95428
speed	-8.95618
98	-8.95656
bs	-8.95663
▁pixel	-8.9568
sm	-8.9571
▁best	-8.95756
tel	-8.96037
esy	-8.96183
hosting	-8.96244
hk	-8.96317
tal	-8.96412
tec	-8.96751
gy	-8.96875
▁ab	-8.96978
dyn	-8.97066
akamai	-8.9712
build	-8.9713
ber	-8.9713
21	-8.97139
cast	-8.97311
agirl	-8.97335
gw	-8.97386
pod	-8.97482
max	-8.97595
▁q	-8.97624
fm	-8.97726
lead	-8.9777
kl	-8.97804
33	-8.97843
▁am	-8.98251
yield	-8.9826
cho	-8.98274
light	-8.98274
daily	-8.98277
jino	-8.98477
ser	-8.98551
gift	-8.98561
dd	-8.98612
35	-8.9863
df	-8.9866
kar	-8.98849
cin	-8.98892
46	-8.98946
forum	-8.98994
park	-8.99053
▁all	-8.99137
▁support	-8.99252
50	-8.99275
ban	-8.993
thru	-8.99372
03	-8.99419
min	-8.9947
ate	-8.99538
buy	-8.99566
age	-8.99581
ica	-8.99613
51	-8.9969
owe	-8.99744
ui	-8.99867
sch	-8.99895
owa	-8.999
lp	-8.99934
sport	-9.00083
10	-9.00203
37	-9.00208
open	-9.00253
das	-9.00283
aw	-9.00308
▁buy	-9.0037
mal	-9.00486
pbn	-9.00489
corp	-9.00657
▁se	-9.00734
bet	-9.00832
alert	-9.00867
pre	-9.00995
▁da	-9.01273
blue	-9.014
eb	-9.01456
gov	-9.0178
den	-9.01931
dsw	-9.01932
ft	-9.01964
ios	-9.01995
▁images	-9.02273
exchange	-9.02298
ado	-9.02335
lb	-9.02337
dg	-9.02429
mat	-9.0255
ven	-9.02644
▁su	-9.02683
fg	-9.02691
68	-9.02896
64	-9.03034
if	-9.03131
rc	-9.03173
under	-9.03178
87	-9.0333
lan	-9.03348
che	-9.03369
mobil	-9.03442
real	-9.03552
kit	-9.03605
99	-9.03857
ska	-9.04006
▁ko	-9.04113
▁vi	-9.04135
rd	-9.0415
np	-9.04214
low	-9.04231
poczta	-9.04233
08	-9.04487
kie	-9.0449
29	-9.04542
xxx	-9.04588
▁4	-9.04828
vr	-9.05025
filmy	-9.05052
ww	-9.05113
▁no	-9.05454
software	-9.05491
clean	-9.05535
55	-9.05867
56	-9.05922
▁login	-9.05928
hb	-9.06097
▁rtb	-9.06149
ati	-9.06175
rtb	-9.06261
▁server	-9.06301
▁di	-9.0644
65	-9.06834
ht	-9.06857
payment	-9.06891
money	-9.06915
dmp	-9.07102
bt	-9.07144
gar	-9.07324
int	-9.07433
▁ra	-9.07452
ls	-9.07479
fp	-9.0804
fy	-9.08091
▁mar	-9.08151
rk	-9.08242
▁ha	-9.08295
ble	-9.08299
ste	-9.08407
ari	-9.08529
rev	-9.08603
▁po	-9.08749
qui	-9.08751
ala	-9.08925
247	-9.09166
sign	-9.09181
40	-9.09222
sports	-9.09236
pet	-9.09642
van	-9.09644
90	-9.09894
dia	-9.104
hy	-9.10433
tc	-9.10448
connect	-9.10518
dz	-9.10555
85	-9.10687
62	-9.10745
wallet	-9.1078
orange	-9.10807
fh	-9.10858
ef	-9.10942
ata	-9.10996
bra	-9.11411
96	-9.11424
fakt	-9.1156
measure	-9.1187
69	-9.11875
ken	-9.12035
brand	-9.12086
adocean	-9.1213
43	-9.12321
▁vk	-9.12321
ive	-9.12361
bill	-9.12447
▁xn	-9.12453
▁jo	-9.12471
law	-9.12618
ox	-9.12733
wp	-9.12753
sw	-9.12849
able	-9.12908
pri	-9.13073
doc	-9.13187
adult	-9.13224
tap	-9.13328
oz	-9.13407
zw	-9.13455
que	-9.13502
20.	-9.13521
paczka	-9.1355
ikj	-9.14138
len	-9.14267
offers	-9.14316
bel	-9.14433
▁gpaper	-9.14582
board	-9.14627
base	-9.1516
57	-9.15182
lin	-9.15364
uni	-9.15438
start	-9.15602
para	-9.15723
centre	-9.15797
limited	-9.15847
premium	-9.15912
wh	-9.16347
nor	-9.16432
map	-9.16471
ien	-9.16526
nj	-9.16558
▁bank	-9.16715
www	-9.1681
77	-9.16846
aff	-9.17143
sl	-9.17163
80	-9.17171
fu	-9.17188
sube	-9.17189
nf	-9.17196
sec	-9.17256
report	-9.1728
customer	-9.17407
▁account	-9.17436
dn	-9.17491
era	-9.17535
foto	-9.1756
eg	-9.17696
▁ap	-9.17704
vod	-9.17969
ron	-9.17979
dis	-9.17991
tools	-9.18017
rewards	-9.18246
lv	-9.1826
intl	-9.18365
ted	-9.1845
▁protection	-9.1866
86	-9.18672
gt	-9.18712
taboola	-9.18722
zillow	-9.18722
53	-9.18761
flash	-9.1878
profit	-9.18847
66	-9.18958
rl	-9.18973
domain	-9.19009
gf	-9.19033
player	-9.19143
▁im	-9.19228
ama	-9.19241
ookie	-9.19291
meter	-9.19351
jk	-9.19366
coin	-9.19384
adv	-9.19497
bc	-9.19523
flow	-9.19539
▁le	-9.19553
18.	-9.19559
fire	-9.19561
▁beacon	-9.19783
promo	-9.19797
og	-9.19841
ax	-9.19927
cal	-9.20119
89	-9.20321
74	-9.20344
py	-9.20516
advert	-9.20552
dh	-9.20588
▁imp	-9.20687
td	-9.20835
dev	-9.20843
alter	-9.21075
▁iad	-9.21127
des	-9.2119
iu	-9.21231
wl	-9.21257
old	-9.21298
fw	-9.21308
gm	-9.21401
sj	-9.21604
computer	-9.21621
foca	-9.21723
▁fa	-9.21778
lab	-9.21784
21.	-9.21799
val	-9.21949
82	-9.2201
fan	-9.22359
kan	-9.22418
▁help	-9.2276
fox	-9.22771
▁stat	-9.22817
yl	-9.22831
clicks	-9.22957
cool	-9.23067
zeroredirect	-9.2307
vids	-9.23304
xn	-9.23319
form	-9.23428
02.	-9.23428
nic	-9.23467
public	-9.23471
buty	-9.23534
yn	-9.23604
unity	-9.23722
ish	-9.23807
place	-9.23856
sand	-9.23919
bud	-9.24062
60	-9.24077
loc	-9.24132
-1.	-9.24292
mt	-9.24338
ire	-9.24377
md	-9.24421
big	-9.2444
26	-9.24463
active	-9.24671
braze	-9.24697
22.	-9.24737
tre	-9.24851
75	-9.249
uz	-9.25032
cjt	-9.25056
rm	-9.25089
bay	-9.25123
porn	-9.25133
▁auto	-9.25142
local	-9.25161
feed	-9.25522
gp	-9.25586
hq	-9.25603
▁bu	-9.25624
▁srv	-9.25659
rg	-9.25745
icloud	-9.25946
unt	-9.25946
ial	-9.25997
del	-9.26018
drive	-9.26104
▁smart	-9.26129
express	-9.26181
kk	-9.26333
nova	-9.26351
pen	-9.26381
ach	-9.26396
tree	-9.26398
nn	-9.26399
metrics	-9.26426
food	-9.26438
mart	-9.26517
ition	-9.26555
vid	-9.26574
pie	-9.26629
▁el	-9.26831
▁tube	-9.26906
trust	-9.26968
tele	-9.26969
jh	-9.27216
▁si	-9.27304
ies	-9.27468
▁ex	-9.27609
bireysel	-9.27616
upgrade	-9.27617
123	-9.27703
target	-9.27736
ski	-9.27737
load	-9.27873
tek	-9.27876
▁lo	-9.28029
79	-9.28053
▁site	-9.28088
lite	-9.28105
▁hu	-9.2811
cur	-9.28188
▁car	-9.28232
ob	-9.28341
mark	-9.28479
block	-9.28537
code	-9.28599
print	-9.28722
kt	-9.28758
vision	-9.28794
sun	-9.2901
▁icloud	-9.29016
king	-9.29081
▁pc	-9.29109
58	-9.2911
ran	-9.29234
company	-9.29239
tur	-9.29334
▁3	-9.29375
vc	-9.29499
phone	-9.29505
action	-9.29681
jj	-9.29752
ys	-9.29793
vl	-9.29798
gold	-9.29805
ware	-9.30078
▁ns	-9.3022
76	-9.3036
tar	-9.30394
19.	-9.30406
▁ho	-9.30426
googleap	-9.30561
petr	-9.30686
text	-9.30696
ral	-9.3075
kunden	-9.30768
dp	-9.3077
casino	-9.30772
laptop	-9.30772
pn	-9.30831
photo	-9.30902
84	-9.31108
panel	-9.31118
91	-9.31132
anti	-9.31186
04	-9.31316
hm	-9.31332
aa	-9.3147
63	-9.31501
▁ga	-9.31694
redirect	-9.31701
xx	-9.31765
serving	-9.31774
rock	-9.31856
are	-9.31916
▁he	-9.31946
ola	-9.31976
▁video	-9.31998
kon	-9.32079
tl	-9.3211
▁image	-9.32164
32	-9.3221
pan	-9.32227
25	-9.32239
▁cr	-9.32286
95	-9.3234
criteo	-9.32379
friend	-9.32381
impact	-9.32404
source	-9.32416
guide	-9.3245
kn	-9.3245
bitcoin	-9.32501
brave	-9.32502
flex	-9.32513
▁ban	-9.32524
ill	-9.32563
fer	-9.32777
adnx	-9.32833
nb	-9.32915
▁cm	-9.32966
opt	-9.32999
mobileapp	-9.33025
bin	-9.33034
ore	-9.33096
mk	-9.33103
▁tracker	-9.33107
tube	-9.33153
core	-9.33171
fal	-9.33269
94	-9.33302
fx	-9.3341
rz	-9.33429
super	-9.33485
signin	-9.33647
banners	-9.33732
ray	-9.33744
inmobi	-9.33923
16.	-9.33924
personal	-9.33942
kz	-9.34092
sha	-9.34099
advance	-9.34104
confirmation	-9.34205
bon	-9.3422
▁fe	-9.34527
zar	-9.34577
ize	-9.34657
001	-9.34794
▁lu	-9.3489
hand	-9.34952
act	-9.34953
mil	-9.34989
---	-9.35089
vd	-9.35128
49	-9.35151
hack	-9.35271
hotel	-9.35401
▁appleid	-9.35451
time	-9.35575
not	-9.35678
critter	-9.35685
fgpp	-9.35711
pocztapolska	-9.35732
glo	-9.35754
pass	-9.3578
cx	-9.36061
ard	-9.3609
06	-9.36173
cism	-9.36187
▁av	-9.36399
▁ph	-9.3641
angel	-9.36438
scan	-9.36458
ify	-9.36521
set	-9.3653
tas	-9.36647
mix	-9.36669
vy	-9.36729
ingest	-9.36968
cottage	-9.3738
xiaomi	-9.374
cloudfront	-9.37403
dream	-9.37461
error	-9.37461
▁serv	-9.3747
100	-9.37569
via	-9.37605
buzz	-9.37776
wj	-9.37852
▁sh	-9.37854
28	-9.37996
imp	-9.38051
27	-9.38101
47	-9.38114
fd	-9.38346
ever	-9.38476
date	-9.38535
▁ssl	-9.3863
sale	-9.38637
oc	-9.38693
kow	-9.38838
nv	-9.38928
iphone	-9.3908
▁gcirm	-9.39104
samsung	-9.39105
school	-9.39115
skype	-9.39117
▁we	-9.39159
wiadomosci	-9.39209
ling	-9.39256
vv	-9.393
qw	-9.39328
any	-9.39463
zen	-9.39495
72	-9.39501
▁sync	-9.39524
cleaner	-9.39635
▁ws	-9.39803
31	-9.39825
bie	-9.39925
ora	-9.40238
ino	-9.4025
cre	-9.40266
52	-9.40641
zg	-9.40674
syndication	-9.40858
▁con	-9.40878
spy	-9.40907
ym	-9.41002
hn	-9.41214
ltd	-9.41259
trader	-9.41299
zedo	-9.41344
ance	-9.4141
deal	-9.41417
ice	-9.41457
hc	-9.41531
ign	-9.41623
off	-9.41724
can	-9.41845
mv	-9.41882
ros	-9.41903
▁adj	-9.41987
rate	-9.42034
event	-9.42079
dan	-9.42167
delivery	-9.42255
▁power	-9.42301
fit	-9.42458
sal	-9.42478
▁un	-9.42485
ale	-9.42566
survey	-9.42644
93	-9.42861
hal	-9.42921
ator	-9.42946
zh	-9.43044
ura	-9.43276
hp	-9.43385
look	-9.43525
oh	-9.43596
24-	-9.4362
wie	-9.43761
vel	-9.43928
▁check	-9.44096
send	-9.44099
-03.	-9.44122
sto	-9.44146
81	-9.44241
owy	-9.44374
ika	-9.44447
tradedouble	-9.44485
▁aol	-9.44549
▁dev	-9.44597
insight	-9.44619
▁ch	-9.44968
73	-9.4502
▁link	-9.45057
pac	-9.45307
idea	-9.45307
times	-9.45599
true	-9.45729
gmt	-9.45768
lf	-9.45957
ub	-9.46012
vk	-9.46019
cat	-9.46043
solution	-9.46147
recovery	-9.46163
like	-9.46194
informacje	-9.4626
madpen	-9.46322
international	-9.4633
▁dr	-9.46387
2017	-9.46414
chase	-9.46577
48	-9.46649
good	-9.46676
par	-9.46855
kj	-9.47002
char	-9.47126
por	-9.47147
ise	-9.47162
ring	-9.47238
partners	-9.47255
tive	-9.47298
▁download	-9.47487
asa	-9.47664
don	-9.47673
48.	-9.47698
ink	-9.47734
mor	-9.47766
ting	-9.47857
green	-9.47984
herst	-9.47993
elastic	-9.48201
perfect	-9.48226
here	-9.48254
▁th	-9.48419
viva	-9.48452
▁to	-9.48693
dot	-9.48711
gn	-9.48713
cyber	-9.48726
xit	-9.48749
ben	-9.489
var	-9.48912
webapps	-9.49122
mont	-9.4913
oj	-9.49159
bh	-9.49233
movies	-9.49392
planet	-9.49491
101	-9.49599
cda	-9.49676
▁adserv	-9.49847
ner	-9.49957
eh	-9.50063
xa	-9.50077
beanstalk	-9.50124
watch	-9.50181
social	-9.5019
ij	-9.50318
▁cl	-9.50376
pon	-9.5043
▁events	-9.50441
uy	-9.50463
banking	-9.50503
hj	-9.50538
back	-9.5068
water	-9.50747
nation	-9.5078
vs	-9.50815
bm	-9.50822
vp	-9.51032
bf	-9.51091
aax	-9.51097
nw	-9.51257
sales	-9.51303
cb	-9.5131
this	-9.51515
23.	-9.51724
bell	-9.51792
▁id	-9.51816
bot	-9.51819
zap	-9.51836
engage	-9.51842
▁affiliate	-9.51921
ris	-9.52041
▁ta	-9.52056
beauty	-9.52087
usadmm	-9.52089
channel	-9.52089
supply	-9.52113
interactive	-9.52122
tom	-9.52144
program	-9.52174
ins	-9.52233
amp	-9.52236
native	-9.52281
deltad	-9.52287
jam	-9.52295
nab	-9.52324
jump	-9.52376
limit	-9.52671
credit	-9.52683
finder	-9.52787
bj	-9.53021
▁mail	-9.53026
vh	-9.53061
next	-9.53345
▁pay	-9.53387
gd	-9.53411
aya	-9.53463
tik	-9.53481
lon	-9.53643
adx	-9.53773
ell	-9.53845
manage	-9.53875
59	-9.53879
see	-9.5393
dynamic	-9.53949
17.	-9.53967
▁pr	-9.53983
use	-9.54001
bil	-9.54011
end	-9.54041
▁promo	-9.54167
ick	-9.54193
▁client	-9.54302
crypto	-9.5434
wr	-9.54365
systems	-9.54428
sso	-9.54657
dw	-9.54684
eye	-9.54944
▁super	-9.55158
mini	-9.55169
fix	-9.55212
wise	-9.55242
run	-9.55291
▁myetherwallet	-9.55293
▁bb	-9.55316
fly	-9.5533
61	-9.55521
3-	-9.55535
px	-9.55559
reg	-9.55565
▁ak	-9.55625
▁gu	-9.55775
sub	-9.55786
shi	-9.55793
girls	-9.55964
iff	-9.55974
ei	-9.56
gazeta	-9.56054
confirm	-9.56103
value	-9.5611
ics	-9.56114
rubicon	-9.56126
fractional	-9.56126
allegro	-9.56127
electric	-9.56127
family	-9.56127
elements	-9.56134
collector	-9.56214
▁jgen	-9.56215
wellsfargo	-9.56285
tab	-9.56298
easy	-9.56343
nugg	-9.56376
nset	-9.56436
▁pub	-9.56456
zoom	-9.56489
realmedia	-9.5651
nas	-9.56611
ann	-9.5667
▁film	-9.56698
agent	-9.5671
hg	-9.56764
cityads	-9.56767
▁tag	-9.56786
ira	-9.56787
talk	-9.56896
spa	-9.56954
▁user	-9.57123
92	-9.57519
ql	-9.5759
lm	-9.57611
myda	-9.5771
zilla	-9.57731
paczk	-9.57742
trip	-9.57833
chat	-9.57894
▁red	-9.5791
92.	-9.57959
hh	-9.58029
tx	-9.58036
nh	-9.5812
mir	-9.58136
invest	-9.58206
member	-9.58218
ville	-9.58226
email	-9.58266
casale	-9.58444
sky	-9.58455
high	-9.58543
met	-9.58668
▁open	-9.58683
ley	-9.58718
kody	-9.58723
▁ju	-9.58906
wd	-9.5891
more	-9.59105
inpost	-9.59178
blo	-9.59235
jb	-9.59313
ovka	-9.59314
admin	-9.59321
dhl	-9.59353
profile	-9.59396
kom	-9.59408
affiliate	-9.59442
▁halkbank	-9.59564
jn	-9.59737
yw	-9.59848
tempur	-9.59871
▁bankofamerica	-9.59887
mr	-9.59893
eclick	-9.59952
wall	-9.60102
ite	-9.60113
▁news	-9.60225
extreme	-9.60337
fashion	-9.60337
optimize	-9.60352
production	-9.60358
▁bi	-9.60461
konto	-9.60546
trading	-9.60621
lift	-9.60627
ants	-9.60709
hits	-9.60831
tp	-9.60896
rak	-9.60901
metri	-9.60926
▁ci	-9.61011
▁amazon	-9.61112
▁notification	-9.61171
eth	-9.61207
▁test	-9.61352
miss	-9.61518
lock	-9.61538
own	-9.6154
ey	-9.61559
▁ag	-9.61637
bee	-9.61739
▁fi	-9.61813
ao	-9.61887
hop	-9.61894
war	-9.62053
32.	-9.62095
▁home	-9.62159
deals	-9.62313
admob	-9.62403
index	-9.62412
logs	-9.62422
adspaces	-9.62594
▁cs	-9.62637
rec	-9.62659
south	-9.62669
gate	-9.62832
merc	-9.62844
▁fast	-9.62846
ass	-9.62859
nat	-9.62879
▁jfn	-9.62895
▁fakty	-9.62942
▁recovery	-9.62946
▁je	-9.62958
cheap	-9.63025
wal	-9.63096
sync	-9.631
▁ti	-9.63131
ota	-9.63185
xy	-9.63416
▁search	-9.63503
hut	-9.63584
▁dc	-9.63651
83	-9.63735
▁security	-9.63738
▁main	-9.63802
works	-9.64099
rent	-9.64189
cafe	-9.64233
▁pe	-9.64355
cw	-9.64435
▁fjr	-9.64534
▁wellsfargo	-9.64592
brain	-9.64608
pdf	-9.64704
control	-9.64716
▁collector	-9.64774
contact	-9.64782
install	-9.6479
claim	-9.64792
kino	-9.64797
farm	-9.64805
wizz	-9.64882
dario	-9.64892
▁chase	-9.64929
▁sha	-9.64956
billing	-9.64983
tho	-9.65054
pulse	-9.65073
ham	-9.65084
multi	-9.65147
jc	-9.65248
▁gd	-9.65251
▁sm	-9.65261
▁hit	-9.65282
vw	-9.65327
dog	-9.65427
71	-9.65472
cell	-9.65651
ili	-9.65764
ful	-9.65796
▁ku	-9.65954
▁global	-9.65993
360	-9.66012
style	-9.66088
read	-9.66127
hs	-9.66167
cle	-9.66382
ney	-9.66405
▁sc	-9.66514
force	-9.66555
poly	-9.66619
xz	-9.66654
▁node	-9.66695
xc	-9.66862
▁win	-9.66922
db	-9.66955
pot	-9.66961
97	-9.66993
poli	-9.67003
consumer	-9.67005
monitor	-9.67006
▁assets	-9.67014
parcel	-9.67051
xl	-9.67053
mind	-9.67079
grand	-9.67176
snap	-9.67251
pg	-9.67368
pic	-9.67391
btc	-9.67399
android	-9.67522
leg	-9.67801
gs	-9.67828
desk	-9.67872
gstatic	-9.67911
links	-9.67991
ih	-9.68165
prze	-9.68223
image	-9.68398
▁ip	-9.68443
▁mu	-9.68484
tha	-9.68503
▁fu	-9.68676
wx	-9.68679
zoo	-9.68779
ram	-9.69016
nx	-9.69023
mel	-9.6905
cie	-9.69068
cd	-9.69144
consult	-9.69181
25.	-9.69194
quest	-9.69255
fj	-9.69315
finance	-9.69338
▁lp	-9.69375
sla	-9.69419
ank	-9.69464
ding	-9.69496
▁collect	-9.69902
creative	-9.69969
ln	-9.69993
pixel	-9.70021
lng	-9.70037
ind	-9.70144
▁nm	-9.70208
rw	-9.70337
▁game	-9.70533
kh	-9.7057
qi	-9.70574
tn	-9.70635
▁your	-9.70638
▁mac	-9.70805
▁ke	-9.7084
▁fr	-9.7088
netflix	-9.70904
jan	-9.71016
oma	-9.71055
geo	-9.71115
cia	-9.71266
plan	-9.7127
nr	-9.71271
dra	-9.71379
accounts	-9.71408
rh	-9.71419
zn	-9.71467
sicherheit	-9.71615
001.	-9.71672
ary	-9.71681
special	-9.71707
machine	-9.71717
indeed	-9.71725
html	-9.71855
duck	-9.71884
client	-9.71971
oosh	-9.72047
ward	-9.72137
▁ni	-9.72161
stra	-9.72207
door	-9.72269
bonus	-9.72296
31.	-9.72383
moat	-9.72475
44.	-9.72504
pm	-9.72543
sie	-9.72606
meta	-9.72675
anta	-9.72688
hen	-9.72721
nes	-9.72768
▁big	-9.72847
lay	-9.72875
rank	-9.73001
ence	-9.73233
▁tags	-9.73503
party	-9.73551
vis	-9.73606
awa	-9.73639
kha	-9.73859
ev	-9.73872
maps	-9.7391
yz	-9.73988
double	-9.74043
bat	-9.74071
script	-9.74129
cher	-9.74147
paribas	-9.74151
technology	-9.74151
inh	-9.7417
royal	-9.74192
refund	-9.74193
swiat	-9.74197
windows	-9.74223
medical	-9.74247
▁verify	-9.74274
vivo	-9.7439
ii	-9.74486
lex	-9.74532
uu	-9.74583
sure	-9.74607
▁ps	-9.74662
nis	-9.74676
arpa	-9.74697
und	-9.74698
uh	-9.74736
obi	-9.74798
ask	-9.74838
▁delivery	-9.74851
▁traffic	-9.74873
▁partner	-9.74925
wm	-9.74972
365.	-9.75066
events	-9.75093
▁pp	-9.75096
rp	-9.75097
eq	-9.75121
lim	-9.75334
eva	-9.75436
▁via	-9.75464
mega	-9.7556
sol	-9.75649
▁post	-9.75674
ret	-9.75721
side	-9.75854
raj	-9.7589
cons	-9.75914
▁creative	-9.75969
ship	-9.7622
04.	-9.76289
rich	-9.76344
rot	-9.76367
▁confirm	-9.76408
▁content	-9.76462
wu	-9.76478
updates	-9.76534
▁admin	-9.76649
document	-9.76651
regulamin	-9.76651
technologies	-9.76651
college	-9.76651
garternal	-9.76651
headregret	-9.76651
teckinharmux	-9.76651
rainxpose	-9.76651
yandex	-9.76653
creator	-9.76675
serwis	-9.76676
street	-9.76697
tf	-9.76728
▁pop	-9.76794
appleid	-9.76818
▁tu	-9.76838
protect	-9.76891
suite	-9.76907
▁can	-9.76956
rf	-9.76981
hill	-9.77033
▁va	-9.77082
dating	-9.77149
jw	-9.77169
ej	-9.77184
faktypolska	-9.77194
360.	-9.77258
sil	-9.77358
fs	-9.77398
bk	-9.77406
▁mt	-9.77505
duapp	-9.77513
lux	-9.77548
sur	-9.77655
▁asd	-9.77703
temp	-9.77736
vm	-9.77817
room	-9.77838
axf	-9.77912
▁en	-9.77987
km	-9.78379
lib	-9.78561
drop	-9.78623
tb	-9.78649
dro	-9.78709
hl	-9.78816
ium	-9.78855
▁advert	-9.78916
yr	-9.78933
long	-9.78992
rel	-9.79023
uf	-9.79061
capital	-9.79174
03.	-9.79195
square	-9.79217
bureau	-9.79217
mportant	-9.79218
lucky	-9.7922
scr	-9.79232
craft	-9.79266
▁pu	-9.79281
ele	-9.79305
quick	-9.79414
bang	-9.7942
05.	-9.79482
ziyu	-9.7951
axi	-9.7951
bag	-9.79548
ssp	-9.79562
yi	-9.79583
gc	-9.79594
show	-9.79621
glam	-9.79703
pos	-9.79717
cg	-9.79774
▁appservice	-9.79779
bal	-9.79828
▁adx	-9.79972
▁ali	-9.80064
rv	-9.80086
pushw	-9.80126
wis	-9.80206
zalukaj	-9.80327
config	-9.80374
magic	-9.8048
affiliates	-9.80525
popup	-9.80534
sci	-9.80559
aq	-9.80566
▁oas	-9.80697
▁hot	-9.80737
xg	-9.80816
sites	-9.80824
flu	-9.80872
▁up	-9.80874
▁hi	-9.8107
gifts	-9.81076
ase	-9.81201
cion	-9.8121
nica	-9.81225
tch	-9.8125
hat	-9.81337
mad	-9.81347
rx	-9.81361
boy	-9.81415
wan	-9.81464
vq	-9.8166
girl	-9.81663
lia	-9.81681
adobe	-9.81701
▁om	-9.81762
effective	-9.81846
porwanie	-9.81847
warszawa	-9.81847
taobao	-9.81847
emonitoring	-9.81849
cities	-9.8185
hardware	-9.81852
ava	-9.81864
sell	-9.81899
garden	-9.8192
▁sw	-9.81943
qc	-9.81981
outlet	-9.81994
opti	-9.82054
pedia	-9.82072
tg	-9.82072
kel	-9.82209
▁photos	-9.82212
▁kcn	-9.82225
bio	-9.82255
presa	-9.82265
gj	-9.82277
dpd	-9.82308
xh	-9.82407
fn	-9.82527
ert	-9.82553
tours	-9.8258
kin	-9.82629
hel	-9.82635
salon	-9.82655
fuse	-9.82788
movie	-9.82884
winners	-9.82918
kal	-9.8296
message	-9.82983
trans	-9.8329
qy	-9.83333
▁page	-9.83408
bradu	-9.83461
▁sun	-9.83596
adsystem	-9.83619
fq	-9.83675
math	-9.83707
cra	-9.83781
ella	-9.83825
▁match	-9.83864
wn	-9.84033
▁fun	-9.84089
▁dis	-9.84091
fitness	-9.84173
▁ver	-9.84253
images	-9.84258
hese	-9.84261
▁shop	-9.8446
ambient	-9.8455
construction	-9.84552
bul	-9.84559
general	-9.8456
wordpress	-9.84561
▁mon	-9.84588
fanpage	-9.84595
mania	-9.84597
▁wa	-9.84626
consulting	-9.84714
jd	-9.84737
llc	-9.84747
bert	-9.84805
ations	-9.84827
quant	-9.84835
bus	-9.84843
888	-9.84854
cpm	-9.84907
cks	-9.85135
iqui	-9.85182
agro	-9.85241
dla	-9.85285
pack	-9.85364
less	-9.85412
sel	-9.85456
▁aff	-9.85473
▁logv	-9.85525
town	-9.85639
teen	-9.85802
zj	-9.85848
baby	-9.85894
chem	-9.85906
labs	-9.85918
gal	-9.85934
▁dl	-9.86003
▁or	-9.86031
ness	-9.86097
ike	-9.86098
mediaz	-9.86218
gle	-9.86277
exp	-9.86512
rad	-9.86555
▁time	-9.86624
zd	-9.86829
radio	-9.86893
polski	-9.86898
networks	-9.86987
dir	-9.87016
gin	-9.87052
full	-9.87173
alt	-9.87207
made	-9.87212
pur	-9.87275
▁pre	-9.87313
journal	-9.87327
wealth	-9.87328
heroku	-9.87329
shopping	-9.87333
discover	-9.8734
setting	-9.87351
turn	-9.87411
dos	-9.87444
clever	-9.87482
googletag	-9.87494
natural	-9.87497
ual	-9.87547
lic	-9.87547
bor	-9.87565
lat	-9.87611
rom	-9.87613
neo	-9.87743
sense	-9.8786
partner	-9.87863
▁gateway	-9.87947
shino	-9.87975
with	-9.88021
ings	-9.88105
adt	-9.8824
att	-9.88268
sig	-9.88324
▁report	-9.88373
right	-9.88413
alfa	-9.88467
xw	-9.88481
chan	-9.88502
rvr	-9.88526
▁file	-9.88539
flor	-9.88552
▁blog	-9.88601
union	-9.88609
face	-9.88623
mediav	-9.88691
cja	-9.88774
▁ziraat	-9.88889
chg	-9.889
addr	-9.8894
cnn	-9.89005
bx	-9.89008
▁widget	-9.89093
ture	-9.89152
100.	-9.89199
hair	-9.89254
zm	-9.89256
365	-9.89279
rb	-9.89284
▁db	-9.89324
ams	-9.89325
stone	-9.89403
dsp	-9.89422
onso	-9.89462
hai	-9.89518
▁cache	-9.89631
recover	-9.89918
tune	-9.89922
innov	-9.89935
aqi	-9.89972
rea	-9.90005
▁browser	-9.90078
php	-9.90085
photography	-9.90184
dziennik	-9.90184
revenue	-9.90185
bsidd	-9.90189
screen	-9.9019
register	-9.90222
future	-9.90226
alytics	-9.90231
▁pbn	-9.90263
sicher	-9.90277
hyper	-9.90359
▁ikj	-9.90389
fresh	-9.90392
▁engage	-9.90405
▁sjc	-9.90478
record	-9.90576
▁24	-9.90581
frem	-9.90587
szcz	-9.90593
private	-9.90602
scout	-9.90609
▁aa	-9.90646
http	-9.9065
part	-9.90681
fen	-9.907
sheng	-9.9073
kor	-9.90799
wq	-9.9092
case	-9.91035
-1-	-9.9117
tax	-9.91233
aki	-9.9131
▁bar	-9.91333
▁dsw	-9.91356
prize	-9.91381
▁microsoft	-9.91442
▁ki	-9.91761
other	-9.9182
▁config	-9.91828
lava	-9.91841
fin	-9.91913
allegrolokalnie	-9.91964
notification	-9.9198
vg	-9.91984
ical	-9.91999
order	-9.92013
yk	-9.92051
ure	-9.92096
adnetwork	-9.92149
06.	-9.92207
202	-9.92359
step	-9.92421
▁qu	-9.92439
▁netflix	-9.92456
mill	-9.92471
secured	-9.92494
arc	-9.92541
voice	-9.92607
▁cal	-9.92643
two	-9.92692
▁rb	-9.92775
phil	-9.92831
▁halk	-9.92841
surf	-9.92937
qf	-9.92955
alph	-9.92968
pocztex	-9.93097
graph	-9.9312
purchase	-9.93134
tour	-9.93137
strefa	-9.9315
lnpost	-9.93154
telefon	-9.93154
outbrain	-9.9316
marketplace	-9.93169
pubmatic	-9.93169
smith	-9.93185
nel	-9.93237
spring	-9.93291
bridge	-9.93351
cross	-9.93354
▁hir	-9.93372
▁chaseonline	-9.93382
week	-9.93522
clear	-9.93644
ball	-9.93712
▁xml	-9.93726
110	-9.93727
uv	-9.93871
mate	-9.93886
join	-9.94163
down	-9.94248
▁inter	-9.94434
33.	-9.94485
ipp	-9.94519
dar	-9.94571
ladi	-9.94573
▁hotel	-9.94592
▁logc	-9.94669
▁ce	-9.9476
asm	-9.94793
bur	-9.94857
▁nexus	-9.94888
cen	-9.94963
collect	-9.94991
▁du	-9.95026
▁man	-9.9509
sea	-9.9511
fish	-9.95254
micro	-9.95291
gene	-9.95292
camp	-9.95379
flix	-9.95414
▁mega	-9.9552
lh	-9.95521
mine	-9.95597
diet	-9.95608
skin	-9.95624
videos	-9.95722
▁apps	-9.9576
▁trk	-9.95762
custom	-9.95775
hw	-9.95826
cel	-9.95925
cv	-9.95935
▁inpost	-9.96072
generator	-9.96156
magazine	-9.96156
vietnam	-9.96156
agency	-9.96157
people	-9.96158
expert	-9.96176
canada	-9.96182
fusion	-9.96207
far	-9.96276
spin	-9.96303
mangoad	-9.96318
notice	-9.96345
ela	-9.96399
from	-9.96409
japan	-9.96416
stock	-9.96546
fastly	-9.96618
seo	-9.96625
wind	-9.96648
mod	-9.96676
▁fl	-9.96856
▁code	-9.9693
vj	-9.96947
reach	-9.97008
pics	-9.97014
czy	-9.97023
device	-9.97117
note	-9.97174
dq	-9.97177
cert	-9.97185
ultra	-9.97206
toms	-9.97341
▁med	-9.97382
▁mob	-9.97436
acja	-9.97448
▁wi	-9.97476
matic	-9.97493
88.	-9.97586
indo	-9.97647
iet	-9.97653
docs	-9.9768
rj	-9.97694
fil	-9.97703
▁tech	-9.97719
late	-9.97786
sv	-9.97917
beta	-9.97929
ores	-9.97984
loan	-9.9806
url	-9.98097
ini	-9.98109
▁rt	-9.98172
ista	-9.9818
anna	-9.98264
mall	-9.98304
mxp	-9.98392
ether	-9.98433
how	-9.98525
▁android	-9.98575
wc	-9.98621
▁gi	-9.98642
123.	-9.98676
kf	-9.98771
word	-9.98797
jet	-9.98916
guru	-9.98942
kw	-9.98965
▁ne	-9.98968
cent	-9.99025
zon	-9.99036
nar	-9.99064
ame	-9.99081
.168.1	-9.99113
kampanya	-9.99281
linkedin	-9.99284
verif	-9.99339
last	-9.99372
▁usaa	-9.9943
▁rc	-9.99479
monster	-9.9948
torrent	-9.99489
▁os	-9.99578
urban	-9.99594
valid	-9.99725
trend	-9.99737
▁ms	-9.99748
white	-9.99902
▁per	-9.99909
▁ib	-9.99932
rest	-9.99993
zk	-10.0001
prime	-10.0003
about	-10.0004
cars	-10.0005
rian	-10.0017
▁push	-10.0019
zalo	-10.0021
color	-10.0021
▁hb	-10.0027
igg	-10.0028
tle	-10.0032
▁nrj	-10.0038
wk	-10.0039
crack	-10.004
qk	-10.0046
xe	-10.0049
trends	-10.0049
▁allegrolokalnie	-10.0054
fz	-10.0059
▁down	-10.0065
electronics	-10.0065
204	-10.0073
yes	-10.0075
bp	-10.0078
spect	-10.008
whi	-10.0083
ameli	-10.0085
▁ncdn	-10.0086
tica	-10.009
mis	-10.0093
▁accounts	-10.0099
gon	-10.01
ible	-10.0103
iw	-10.0104
lets	-10.0114
kup	-10.0121
bright	-10.0127
gay	-10.0129
ors	-10.0139
pill	-10.0152
▁ams	-10.0154
500	-10.016
rq	-10.0163
jack	-10.0164
led	-10.0164
mw	-10.0179
arte	-10.0181
front	-10.0184
kq	-10.0187
cj	-10.0189
inst	-10.0198
interac	-10.0206
▁nu	-10.0208
wow	-10.022
eria	-10.0222
applovin	-10.0251
phentermine	-10.0251
holiday	-10.0251
poll	-10.0251
addthis	-10.0251
segment	-10.0253
wire	-10.0254
commerce	-10.0257
training	-10.0261
management	-10.0263
kp	-10.0264
logon	-10.0275
bz	-10.028
europe	-10.0281
mz	-10.0291
yh	-10.0291
acion	-10.0293
microad	-10.0295
appboy	-10.0299
meet	-10.0313
onion	-10.0316
elle	-10.0324
ria	-10.0327
scripts	-10.033
accountid	-10.034
jf	-10.0342
euro	-10.0346
scape	-10.0361
kur	-10.0364
apart	-10.0367
will	-10.0369
mur	-10.0374
gmail	-10.0375
homes	-10.0383
▁euro	-10.0386
▁ai	-10.0387
adk	-10.0393
enterprises	-10.0396
kli	-10.0403
dor	-10.0408
26.	-10.0409
products	-10.0413
▁em	-10.0413
clk	-10.0413
xt	-10.0426
▁phorm	-10.0428
jy	-10.0429
▁6	-10.0441
▁outlook	-10.0442
mak	-10.0444
mie	-10.0444
river	-10.0452
mari	-10.0459
research	-10.0471
qh	-10.0473
jl	-10.0482
qa	-10.0483
level	-10.0486
lik	-10.0491
▁dsp	-10.0495
▁weather	-10.05
counters	-10.0504
abc	-10.0504
xq	-10.0506
gateway	-10.0512
ssa	-10.0521
checking	-10.0524
mng	-10.0526
dav	-10.0543
eren	-10.055
▁ji	-10.0556
change	-10.0561
▁verification	-10.0568
may	-10.0572
imserv	-10.0579
pj	-10.058
resources	-10.058
privacy	-10.0584
tekerstreet	-10.0584
anzugreifen	-10.0584
consquarters	-10.0584
esoterisch	-10.0584
greenelephants	-10.0584
insectrunfollow	-10.0584
lifefordatings	-10.0584
listentome	-10.0584
thoughcopyforest	-10.0584
thvedroisil	-10.0584
waarschijnlijk	-10.0584
jsdevelopmentq	-10.0584
opinion	-10.0584
cntrl	-10.0584
itunes	-10.0586
staging	-10.0586
anthill	-10.0586
bidgear	-10.0587
venture	-10.0589
▁view	-10.0594
giftcard	-10.0614
mh	-10.0631
eba	-10.0632
call	-10.0632
ique	-10.0634
token	-10.0637
ena	-10.0643
▁black	-10.0645
wei	-10.0648
mkt	-10.0669
dzie	-10.0674
redd	-10.0677
clip	-10.0679
ux	-10.068
trace	-10.0682
onclick	-10.0687
evo	-10.0693
mina	-10.071
mic	-10.0716
twoje	-10.0719
tim	-10.0725
moto	-10.0731
jz	-10.0731
acct	-10.0737
vic	-10.0743
atdm	-10.0747
product	-10.0755
nut	-10.0762
clients	-10.0768
aja	-10.077
ijit	-10.0771
zl	-10.0779
wv	-10.0797
▁show	-10.0801
rep	-10.0823
nan	-10.0824
180	-10.0829
yun	-10.0831
▁uni	-10.0835
▁event	-10.0845
cards	-10.0855
locked	-10.0858
photos	-10.0858
black	-10.0869
person	-10.0878
platnosc	-10.0887
dat	-10.0888
iva	-10.089
save	-10.09
▁kar	-10.0904
table	-10.0912
kol	-10.0914
baza	-10.0922
tory	-10.0923
ziraatbank	-10.0925
jq	-10.0929
foundation	-10.0931
poker	-10.0931
▁font	-10.0932
adtima	-10.0932
bucks	-10.0932
issue	-10.0932
pil	-10.0938
origin	-10.0944
energy	-10.095
weeb	-10.0951
france	-10.0952
unblock	-10.0955
aol	-10.0963
99.	-10.0965
biznes	-10.0967
nity	-10.0968
adsafe	-10.0988
zione	-10.0988
graf	-10.0989
gor	-10.0994
dental	-10.0994
▁art	-10.1006
pns	-10.1012
nagrod	-10.1021
▁good	-10.1033
▁just	-10.1035
model	-10.1036
hou	-10.104
▁google	-10.1042
legal	-10.1048
ori	-10.1048
yc	-10.1061
bug	-10.1071
yj	-10.1073
127	-10.1085
drug	-10.1115
markets	-10.1125
42.	-10.1143
▁af	-10.1144
eta	-10.1148
▁clicks	-10.1151
▁op	-10.1163
▁cloud	-10.1165
002.	-10.1169
move	-10.1178
put	-10.1179
securelogin	-10.1179
▁eth	-10.1181
extra	-10.1181
hoo	-10.1187
gwalt	-10.1195
▁vip	-10.1208
veri	-10.1212
qb	-10.1217
▁tele	-10.1226
ident	-10.1228
rwd	-10.1228
jak	-10.1242
▁bit	-10.1243
lgc	-10.1254
▁manage	-10.1265
xu	-10.1265
gum	-10.1269
▁cp	-10.127
102	-10.1274
lw	-10.1284
zdjecia	-10.1286
performance	-10.1286
▁joodfbnm	-10.1286
goedekans	-10.1286
pocket	-10.1286
lightning	-10.1286
switch	-10.1287
tremor	-10.1288
malware	-10.1289
tick	-10.1292
odbior	-10.1293
giris	-10.1294
grupo	-10.1295
factory	-10.1296
alam	-10.1301
▁cu	-10.1302
▁vast	-10.1305
56.	-10.1307
yb	-10.1309
moo	-10.1313
70.	-10.132
qj	-10.132
cje	-10.1322
-24.	-10.1324
john	-10.1329
virus	-10.1352
▁wf	-10.1362
say	-10.1365
aps	-10.1366
▁lb	-10.1369
lfst	-10.1379
ago	-10.1386
wood	-10.1392
iba	-10.1394
lj	-10.1408
▁ve	-10.141
▁mc	-10.1411
safety	-10.1411
nbc	-10.1416
lla	-10.1416
just	-10.1426
aqua	-10.1438
▁vo	-10.1438
▁pri	-10.144
denizbank	-10.1451
type	-10.1453
bao	-10.1464
stage	-10.1477
▁sol	-10.148
earn	-10.1492
▁alb	-10.1494
gun	-10.1502
▁cb	-10.1508
vz	-10.151
▁on	-10.1512
adservices	-10.1512
sponsor	-10.1519
wnia	-10.1532
pat	-10.1533
247.	-10.1534
appid	-10.1538
tak	-10.1542
imap	-10.1546
kag	-10.1549
terra	-10.1551
▁har	-10.1561
▁real	-10.1561
▁safe	-10.1563
uq	-10.1568
▁che	-10.157
▁jan	-10.1578
tool	-10.1583
inner	-10.1586
testing	-10.1592
bytes	-10.1614
protecte	-10.1617
zr	-10.1618
first	-10.1623
qe	-10.1649
vx	-10.1651
appsflyer	-10.1656
-------	-10.1657
seguro	-10.1657
sweet	-10.1659
wz	-10.166
konten	-10.1661
scorecardre	-10.1664
doctor	-10.1665
28.	-10.167
ups	-10.1682
tice	-10.1701
stack	-10.1708
ebook	-10.171
2015	-10.1724
thumbs	-10.1731
lg	-10.1733
seek	-10.1736
cliente	-10.1739
nasz	-10.174
crew	-10.1743
▁cor	-10.1763
graphics	-10.1766
rules	-10.1769
poland	-10.1771
▁7	-10.1772
ciel	-10.1777
score	-10.178
gia	-10.1794
234	-10.1806
endo	-10.1806
oni	-10.1808
promote	-10.1812
twoja	-10.1814
▁sant	-10.1826
ket	-10.1828
▁ob	-10.1837
adz	-10.1843
dsc	-10.1849
phi	-10.1853
band	-10.186
jr	-10.1864
enterprise	-10.187
pq	-10.1873
fab	-10.1878
▁tv	-10.1879
szcze	-10.1897
bcp	-10.1904
lina	-10.1904
▁adsrv	-10.1912
mpp	-10.1919
▁pool	-10.1924
asp	-10.1927
cup	-10.1938
fls	-10.1942
▁par	-10.1944
ool	-10.1946
ette	-10.1959
iya	-10.1959
▁redirect	-10.196
▁hy	-10.1961
advertise	-10.1972
onic	-10.1975
kod	-10.1981
▁del	-10.1981
▁pix	-10.1987
mul	-10.199
▁30	-10.1992
globe	-10.2003
▁great	-10.2015
miasto	-10.2019
curtainhardsh	-10.2019
qr	-10.2022
▁load	-10.2036
890	-10.2037
wydarzenia	-10.2041
publisher	-10.2041
hollywood	-10.2041
pobierz	-10.2041
rakuten	-10.2041
academy	-10.2041
analysis	-10.2041
▁nbrwer	-10.2041
impression	-10.2041
generuj	-10.2041
rkshire	-10.2041
▁health	-10.2041
amazing	-10.2041
fotki	-10.2041
instagram	-10.2042
linux	-10.2043
centrum	-10.2044
justpremium	-10.2044
▁speed	-10.2046
silver	-10.2046
nico	-10.2047
▁ale	-10.2051
guard	-10.2056
query	-10.2056
iper	-10.2058
wol	-10.2059
clickz	-10.206
virtual	-10.2074
think	-10.2078
cleaning	-10.2086
arts	-10.2098
mf	-10.2101
maxim	-10.2114
paper	-10.2119
▁steam	-10.2127
kings	-10.2133
jx	-10.2135
traf	-10.2136
option	-10.2145
▁ya	-10.2146
hosted	-10.2149
nix	-10.2151
bol	-10.2152
bq	-10.2174
▁gum	-10.2183
vpn	-10.2211
jun	-10.2211
cpa	-10.2214
vf	-10.2233
vir	-10.2234
parts	-10.2235
▁sec	-10.2236
boost	-10.2236
heart	-10.2237
tta	-10.2247
onthe	-10.2257
rand	-10.226
flower	-10.2263
reklam	-10.2275
users	-10.2276
404	-10.2287
▁one	-10.2294
pel	-10.2303
apk	-10.2303
lok	-10.2307
burg	-10.231
decor	-10.2311
arena	-10.2311
deep	-10.2326
▁max	-10.2329
▁warn	-10.233
▁clk	-10.233
ford	-10.2331
lc	-10.2331
ack	-10.2333
qd	-10.2342
▁logi	-10.2352
god	-10.2358
▁sdc	-10.2359
▁direct	-10.2369
roz	-10.2372
books	-10.238
hall	-10.239
▁internet	-10.2392
intent	-10.2402
▁yo	-10.2431
motor	-10.2438
fili	-10.2439
activity	-10.2441
entertainment	-10.2441
financial	-10.2441
tribune	-10.2441
stuff	-10.2442
darmowe	-10.2443
empire	-10.2443
toolbar	-10.2443
newreli	-10.2443
spyware	-10.2443
simple	-10.2444
snssdk	-10.2445
berg	-10.2446
▁myether	-10.2446
investment	-10.2446
mission	-10.2448
▁host	-10.245
exelat	-10.2452
lli	-10.2456
▁office	-10.2457
class	-10.246
alle	-10.246
pv	-10.2471
▁bh	-10.2474
ugg	-10.2479
▁ebay	-10.248
unlimited	-10.248
ovation	-10.2481
▁googleads	-10.2481
forex	-10.2486
clix	-10.2489
▁acc	-10.2489
goog	-10.2489
▁war	-10.249
china	-10.2502
dian	-10.2507
▁vid	-10.2511
▁back	-10.2514
tagan	-10.2519
assets	-10.2521
adexchange	-10.2521
body	-10.2524
▁demo	-10.2533
▁trans	-10.2535
nq	-10.254
gear	-10.2543
mps	-10.2546
lnk	-10.2556
bankasi	-10.2557
refer	-10.2558
golden	-10.2564
conta	-10.2582
seg	-10.2588
wave	-10.2592
▁blue	-10.2621
myaccount	-10.2622
105	-10.2639
clar	-10.2642
moon	-10.2661
item	-10.2668
gul	-10.2675
▁ct	-10.2688
geek	-10.2698
subesi	-10.2704
oix	-10.2734
that	-10.2738
hunt	-10.2739
winner	-10.2747
coast	-10.275
666	-10.276
fur	-10.2768
lake	-10.277
▁hg	-10.2771
▁pol	-10.2774
▁msn	-10.2776
izer	-10.2778
haus	-10.2785
try	-10.2786
bok	-10.2789
▁core	-10.2792
hf	-10.2806
gry	-10.2817
secur	-10.2851
tealium	-10.2858
santander	-10.2858
process	-10.2858
amateur	-10.2858
interior	-10.2859
logger	-10.286
choice	-10.2861
ticket	-10.2863
community	-10.2864
azure	-10.2864
▁bn	-10.2866
logowanie	-10.2866
browser	-10.2873
walk	-10.2874
ogrod	-10.2874
umeng	-10.2877
blade	-10.2878
detect	-10.2879
transport	-10.2879
haber	-10.2879
▁curtainhardsh	-10.2881
seriale	-10.2882
protection	-10.2882
beat	-10.2888
miu	-10.2889
cgi	-10.2893
viagra	-10.2894
bidder	-10.2896
realty	-10.29
villa	-10.2914
words	-10.2927
oge	-10.2929
▁md	-10.2929
stars	-10.2938
national	-10.294
startapp	-10.2941
avis	-10.2944
rush	-10.2953
▁dar	-10.296
ref	-10.2975
321	-10.2976
ries	-10.2976
otto	-10.2978
asian	-10.2978
▁ameli	-10.2982
warn	-10.2988
103	-10.2989
nom	-10.2991
total	-10.3002
ington	-10.3005
rail	-10.3006
miner	-10.3017
coach	-10.3029
▁gsp	-10.3031
xiao	-10.3035
self	-10.3044
plik	-10.3051
hang	-10.3052
▁services	-10.3057
cla	-10.3073
state	-10.3088
err	-10.3089
toys	-10.3089
cbs	-10.3099
iso	-10.3104
▁wp	-10.3108
demo	-10.3121
▁logs	-10.3137
▁bt	-10.3151
conf	-10.3163
▁sg	-10.3178
tami	-10.318
gran	-10.3187
qm	-10.3193
servic	-10.3203
dong	-10.3204
guy	-10.3205
arta	-10.3211
▁sy	-10.3215
downloads	-10.3244
wix	-10.3257
jest	-10.3262
leri	-10.3265
mom	-10.329
zonasegura	-10.3292
hydrocodone	-10.3292
revolver	-10.3292
property	-10.3292
courier	-10.3293
▁easy	-10.3294
confrim	-10.3294
africa	-10.3295
learning	-10.3301
ranking	-10.3309
wide	-10.3311
ativo	-10.3312
resolve	-10.3318
cook	-10.3321
pick	-10.3328
dance	-10.3329
location	-10.333
great	-10.3331
ped	-10.3332
sem	-10.3336
▁first	-10.3337
▁px	-10.334
▁vap	-10.334
savings	-10.335
zel	-10.3355
logic	-10.3355
earth	-10.3359
parking	-10.3359
scope	-10.3371
ministr	-10.3383
very	-10.3426
trck	-10.3452
dark	-10.3469
promotion	-10.3488
forge	-10.3496
chain	-10.3501
peru	-10.3508
sail	-10.3524
rey	-10.3532
003.	-10.3535
cinema	-10.3536
encia	-10.3547
xchange	-10.3548
robo	-10.355
▁adobe	-10.3552
▁american	-10.3552
▁sam	-10.3553
wine	-10.3561
medic	-10.3562
hor	-10.3563
▁mas	-10.3572
▁adservice	-10.3573
only	-10.3575
night	-10.3577
rta	-10.3578
▁metric	-10.3582
jmp	-10.3596
bike	-10.3603
fle	-10.3607
osa	-10.362
hell	-10.363
▁ah	-10.3635
wang	-10.364
hir	-10.3641
cart	-10.3652
▁rs	-10.3671
paint	-10.3678
immo	-10.3683
metal	-10.3686
111.	-10.3697
gue	-10.3698
yq	-10.3706
parc	-10.3717
sina	-10.374
atendimento	-10.3747
specific	-10.3747
webtrekk	-10.3747
ultimate	-10.3747
skimlinks	-10.3747
audience	-10.3747
randalieren	-10.3747
bnpparibas	-10.3747
przelew	-10.3747
session	-10.3747
church	-10.3747
wedding	-10.3747
registrycleaner	-10.3748
broker	-10.3748
validate	-10.3749
valley	-10.375
brasil	-10.375
moncompte	-10.375
eight	-10.3751
gaming	-10.3751
alibaba	-10.3753
balance	-10.3755
blind	-10.3756
unlock	-10.3758
truck	-10.3759
lycos	-10.3764
valueclick	-10.3765
secret	-10.3768
country	-10.3768
united	-10.3771
italia	-10.3772
przeda	-10.3774
▁mr	-10.3779
wfb	-10.3779
acces	-10.3791
01-	-10.3792
platnosci	-10.3803
▁gar	-10.381
999	-10.3812
ador	-10.3814
▁green	-10.3829
display	-10.3833
ogur	-10.3845
▁cgi	-10.386
poszukiwania	-10.3869
▁9	-10.3876
espace	-10.3882
daten	-10.3888
rod	-10.3904
promotions	-10.3923
cele	-10.393
lady	-10.3934
copy	-10.3936
coins	-10.3937
foo	-10.3952
forums	-10.396
abb	-10.3986
ilo	-10.3993
▁radio	-10.4001
▁reg	-10.4013
iesna	-10.4017
▁zalukaj	-10.4018
pak	-10.4018
deniz	-10.4019
shoes	-10.4024
▁oc	-10.4064
vine	-10.4074
tru	-10.4083
▁upload	-10.4086
▁proxy	-10.4089
exo	-10.4093
▁face	-10.4103
adap	-10.4125
price	-10.4129
fair	-10.4132
▁multi	-10.4143
aapl	-10.4147
slim	-10.4148
kle	-10.4155
▁adserve	-10.4164
dol	-10.4165
eck	-10.4173
▁anal	-10.4175
gel	-10.4179
vert	-10.4179
train	-10.418
adup	-10.4184
svc	-10.4185
▁123	-10.4187
layer	-10.4188
america	-10.4211
boot	-10.4215
plex	-10.4222
atlantic	-10.4223
properties	-10.4223
▁servedby	-10.4223
publishing	-10.4223
voucher	-10.4223
konkurs	-10.4223
advisor	-10.4223
▁youtube	-10.4224
github	-10.4224
crazy	-10.423
frost	-10.423
pizza	-10.4232
avenue	-10.4234
visitor	-10.4235
classic	-10.4237
medium	-10.424
▁oix	-10.4242
context	-10.4244
career	-10.4253
cxen	-10.4253
bia	-10.4253
storm	-10.4257
north	-10.4259
tags	-10.4271
teria	-10.4275
booth	-10.4275
usia	-10.4278
polskie	-10.4288
perfum	-10.4289
tui	-10.43
▁reklam	-10.4303
logging	-10.4305
klub	-10.4316
range	-10.4317
ngle	-10.432
hello	-10.4328
codes	-10.4333
▁cws	-10.4336
results	-10.4346
▁yu	-10.4356
island	-10.4359
▁scro	-10.436
ffd	-10.4367
▁ssp	-10.4373
adapt	-10.4384
jewel	-10.4403
fam	-10.4409
chart	-10.441
lce	-10.4418
▁datam	-10.4432
posta	-10.4437
viet	-10.444
dent	-10.4478
head	-10.4498
smile	-10.4499
dora	-10.4514
omni	-10.4515
cut	-10.4517
▁att	-10.452
jay	-10.4527
fort	-10.4537
▁abc	-10.4543
kids	-10.4552
thai	-10.4557
▁jm	-10.456
333	-10.4568
ibm	-10.4609
▁col	-10.4611
halkbank	-10.4615
supp	-10.4636
ext	-10.4637
▁cat	-10.4641
frame	-10.4653
405	-10.4674
hole	-10.4679
stop	-10.468
waw	-10.4685
job	-10.4688
ncjpower	-10.4693
▁make	-10.4704
▁arm	-10.4716
regionalne	-10.4723
adcolony	-10.4723
ogloszenie	-10.4723
summary	-10.4723
scripps	-10.4723
celebrity	-10.4723
comercial	-10.4723
ception	-10.4723
alliance	-10.4723
storage	-10.4724
coffee	-10.4724
ybinst	-10.4724
kitchen	-10.4725
living	-10.4726
repair	-10.4727
dfirma	-10.473
filter	-10.4731
camera	-10.4732
foot	-10.4732
audio	-10.4732
tj	-10.4734
cycle	-10.4735
instant	-10.474
know	-10.4741
sound	-10.4742
▁china	-10.4744
004.	-10.4745
2019	-10.4756
flag	-10.4757
▁casa	-10.477
region	-10.4771
return	-10.4772
need	-10.4774
▁shi	-10.4774
rise	-10.4775
servicio	-10.4777
ground	-10.4778
iomil	-10.4791
▁smetrics	-10.4792
boom	-10.4802
nice	-10.4803
plast	-10.4803
orama	-10.4805
befast	-10.4806
▁ping	-10.4809
acr	-10.4816
▁pin	-10.4817
golf	-10.4818
hard	-10.482
holdings	-10.4826
fff	-10.4829
mopub	-10.483
▁safebrows	-10.4832
bankofamerica	-10.4834
kul	-10.4843
have	-10.4844
mira	-10.4854
▁rd	-10.4855
bird	-10.4856
tips	-10.4864
▁onet	-10.4878
maj	-10.4896
cache	-10.49
transfer	-10.4933
pge	-10.4946
human	-10.4946
qz	-10.4949
soci	-10.497
xj	-10.4997
alpha	-10.5011
bolt	-10.5026
▁stx	-10.503
foods	-10.5039
129	-10.5044
▁pf	-10.5052
informa	-10.5053
oog	-10.5054
verifi	-10.5066
dable	-10.5087
moje	-10.5093
enk	-10.5094
vans	-10.5097
654	-10.5109
rada	-10.5113
krx	-10.5118
▁wild	-10.512
rtk	-10.5133
solar	-10.5135
195	-10.5143
cri	-10.5154
films	-10.5154
nail	-10.5172
yle	-10.5186
getin	-10.5198
intel	-10.5216
restore	-10.5218
deliver	-10.5229
even	-10.5241
atualiza	-10.5249
sprawdz	-10.5249
exacttarget	-10.5249
festival	-10.5249
insurance	-10.5249
success	-10.5249
▁bcpzonasegura	-10.5249
giveaway	-10.5249
quality	-10.5249
shield	-10.525
coccoc	-10.525
auction	-10.525
area	-10.5251
launch	-10.5251
cialis	-10.5251
membership	-10.5251
vertical	-10.5251
field	-10.5251
ified	-10.5252
realestate	-10.5252
boston	-10.5253
binary	-10.5253
london	-10.5254
tablets	-10.5255
caixa	-10.5256
acesso	-10.5256
glass	-10.5257
break	-10.5259
impots	-10.526
jt	-10.5261
▁ltau	-10.5265
2020.	-10.5267
qp	-10.5267
mufg	-10.5271
mile	-10.5273
▁select	-10.5274
pole	-10.5277
lement	-10.5277
discount	-10.528
gouv	-10.5283
udc	-10.5283
softbank	-10.5285
ways	-10.5286
icherheitssystem	-10.529
node	-10.5296
metro	-10.5296
steel	-10.5301
teraz	-10.5301
fill	-10.5304
scure	-10.5307
hydro	-10.5314
▁clit	-10.5314
lama	-10.532
associates	-10.5321
loot	-10.5322
touch	-10.5329
praca	-10.5338
enter	-10.5342
give	-10.5345
liber	-10.5345
tex	-10.5349
▁she	-10.5358
tcp	-10.5358
pure	-10.5364
peak	-10.5367
visa	-10.5375
logistics	-10.5377
weather	-10.5385
beacon	-10.539
motors	-10.5392
twoj	-10.5392
kolor	-10.5393
navi	-10.5398
yoga	-10.5401
▁rm	-10.5404
saha	-10.5407
wiki	-10.5416
wild	-10.5424
pxl	-10.5429
bou	-10.5437
maker	-10.5445
yah	-10.5446
leads	-10.5446
jobs	-10.5448
sponsors	-10.545
fine	-10.5453
mann	-10.5473
marketg	-10.5481
broad	-10.5492
lyn	-10.5509
doll	-10.5532
yil	-10.5537
charge	-10.5548
visit	-10.5553
jon	-10.5562
elect	-10.5564
small	-10.5575
clinic	-10.558
grab	-10.558
cake	-10.5581
erie	-10.5584
ugu	-10.5589
bear	-10.5592
777	-10.5595
regis	-10.5613
renew	-10.5635
176	-10.5637
199	-10.564
adasia	-10.5644
ciones	-10.5658
rick	-10.5664
ready	-10.5693
▁bri	-10.5713
banca	-10.573
007.	-10.5744
zhen	-10.5745
sdn	-10.575
sight	-10.576
nexi	-10.5764
virtu	-10.5765
setup	-10.5768
traff	-10.5793
evi	-10.5796
playstation	-10.5805
weryfikacja	-10.5805
elektro	-10.5805
glosowanie	-10.5805
messenger	-10.5805
supersonicads	-10.5805
universal	-10.5805
ogladaj	-10.5805
gallery	-10.5805
vortex	-10.5805
kredyt	-10.5805
provider	-10.5805
naszemiasto	-10.5805
engineering	-10.5805
article	-10.5805
yellow	-10.5805
invite	-10.5806
battle	-10.5806
simpli	-10.5807
finans	-10.5807
identity	-10.5808
insightexpress	-10.5808
pomoc	-10.5808
viabcp	-10.5808
headline	-10.5808
validation	-10.5809
details	-10.5809
▁saxo	-10.5809
focus	-10.5809
atraders	-10.581
iwant	-10.581
baba	-10.5812
shan	-10.5812
child	-10.5815
unbounce	-10.5816
2016.	-10.5816
eagle	-10.5817
excel	-10.5817
gamma	-10.5818
▁incoming	-10.5819
adipex	-10.5819
reporter	-10.5819
keeper	-10.5826
fixed	-10.5828
better	-10.583
happy	-10.5834
ester	-10.5836
oplac	-10.584
inside	-10.5854
gem	-10.5854
crowd	-10.5856
banque	-10.5856
clan	-10.5859
beach	-10.586
conve	-10.5873
creation	-10.5882
root	-10.5884
uol	-10.5896
▁pagead	-10.5909
firm	-10.5913
hay	-10.5913
invoice	-10.5925
chen	-10.5925
wen	-10.5926
interia	-10.5947
thor	-10.5948
nexa	-10.5954
hook	-10.596
▁conv	-10.5967
moba	-10.5968
bugs	-10.5968
halk	-10.5972
ontera	-10.5973
jar	-10.5984
ines	-10.5995
proxy	-10.5998
tram	-10.6002
mrm	-10.6004
upload	-10.6006
feel	-10.6007
vice	-10.6013
drig	-10.6036
121	-10.6041
haw	-10.6043
iec	-10.6044
jv	-10.6046
clickbank	-10.6051
puls	-10.6063
thy	-10.6065
enda	-10.6085
pix	-10.6086
klik	-10.6094
paypa	-10.6094
lom	-10.6123
nint	-10.6132
▁ext	-10.614
rina	-10.6147
compte	-10.6151
uber	-10.6174
estate	-10.6185
prizes	-10.6216
gram	-10.6234
ameri	-10.6238
adjust	-10.6256
hoster	-10.6265
107	-10.627
tbn	-10.6271
090	-10.6283
woo	-10.6284
wski	-10.6297
adbri	-10.63
rium	-10.6309
sapo	-10.6316
oria	-10.636
181	-10.6363
spec	-10.6368
anton	-10.6372
jia	-10.6378
version	-10.6383
staff	-10.6385
109	-10.6389
phoenix	-10.6393
twitter	-10.6393
schutz	-10.6393
together	-10.6393
▁chasebanklogon	-10.6394
aholic	-10.6394
herald	-10.6394
ujemy	-10.6394
deposit	-10.6395
wonder	-10.6395
antivirus	-10.6395
cheats	-10.6395
xanax	-10.6395
pharmacy	-10.6396
method	-10.6396
floor	-10.6396
msg	-10.6399
policy	-10.64
cmp	-10.64
mackeeper	-10.6402
pharma	-10.6402
submit	-10.6404
mmstat	-10.6412
oplata	-10.6414
▁what	-10.6416
baker	-10.6417
msedge	-10.642
found	-10.6424
rental	-10.6429
most	-10.6436
▁itau	-10.6439
fuel	-10.644
motion	-10.6452
dvd	-10.6459
webtrends	-10.6484
agd	-10.6505
freehost	-10.6521
neost	-10.6533
twe	-10.6534
verifica	-10.6535
chron	-10.6545
mama	-10.6553
elli	-10.6562
centro	-10.6564
energ	-10.657
▁wt	-10.6605
bieg	-10.6606
sexy	-10.6609
zona	-10.6611
nights	-10.6621
entry	-10.665
webdesign	-10.665
rill	-10.6679
taxi	-10.6693
147	-10.6697
eko	-10.6704
crow	-10.6705
expo	-10.6709
rice	-10.6737
▁adimg	-10.6739
vida	-10.677
assoc	-10.6792
lian	-10.6792
114	-10.6812
895	-10.6814
trak	-10.6814
some	-10.682
centr	-10.6827
108	-10.6834
tanie	-10.6847
pool	-10.6851
proof	-10.6851
444	-10.6852
098.	-10.6856
104	-10.686
shed	-10.6865
digit	-10.6867
wig	-10.6884
boat	-10.6885
mora	-10.6894
▁118	-10.6896
pow	-10.6917
bbc	-10.6934
kill	-10.6952
porno	-10.6967
lease	-10.6969
ology	-10.6972
inha	-10.6986
120.	-10.6988
amber	-10.6991
ocean	-10.6994
cpi	-10.7005
etarget	-10.7009
registry	-10.7018
industry	-10.7018
pozyczka	-10.7018
dworzec	-10.7018
pozyczki	-10.7018
▁sjrtp	-10.7018
platinum	-10.7018
przechwycone	-10.7018
remboursement	-10.7018
pavypal	-10.7018
▁havven	-10.7018
sneaker	-10.7018
verifikation	-10.7018
ability	-10.7018
dispatch	-10.7018
dollars	-10.7018
merchant	-10.7019
heaven	-10.7019
chartbeat	-10.7019
chartboost	-10.7019
wheel	-10.7019
spirit	-10.7019
genius	-10.702
gratis	-10.702
visual	-10.7021
valium	-10.7021
martens	-10.7022
zdrowi	-10.7024
village	-10.7024
▁nytr	-10.7025
everest	-10.7025
ister	-10.7026
darwin	-10.7026
▁cnhi	-10.7027
ection	-10.7027
vegas	-10.7028
dotpay	-10.7028
outfit	-10.7029
glada	-10.703
▁notify	-10.703
infinit	-10.703
ologia	-10.7037
klick	-10.7037
verified	-10.7038
135	-10.7039
177	-10.7056
naut	-10.7058
shiny	-10.7062
candy	-10.707
shopper	-10.7071
demand	-10.7072
insider	-10.7073
fruit	-10.708
zq	-10.7088
developer	-10.7095
knij	-10.7099
pictures	-10.7103
atlas	-10.7105
pasta	-10.7107
trax	-10.711
119	-10.7117
keep	-10.7132
fargo	-10.7133
audit	-10.7146
▁wsxzs	-10.7147
nature	-10.716
seller	-10.716
cube	-10.7166
394	-10.7197
wifi	-10.7201
therap	-10.7212
dun	-10.7228
hive	-10.7234
take	-10.7235
nest	-10.724
speedb	-10.7241
uwa	-10.7243
lean	-10.726
widget	-10.7266
icha	-10.7289
▁exit	-10.7301
006.	-10.7302
fotogra	-10.7315
export	-10.7318
xia	-10.7331
adfarm	-10.7335
staw	-10.7346
wish	-10.7351
mond	-10.7355
advice	-10.7372
qwe	-10.7403
adform	-10.7423
egg	-10.743
oasis	-10.7436
quad	-10.7441
diamond	-10.7499
arbo	-10.7502
zur	-10.7505
result	-10.7508
ftp	-10.7519
przy	-10.7529
fwd	-10.7541
hak	-10.7558
herbal	-10.7569
ujm	-10.7579
escape	-10.7587
080	-10.7625
tub	-10.7668
espn	-10.7672
predict	-10.7684
przedszkole	-10.7685
object	-10.7685
wroclaw	-10.7685
genieessp	-10.7685
youcanopt	-10.7685
furniture	-10.7685
activate	-10.7685
akademia	-10.7685
concept	-10.7685
aktualis	-10.7685
zakupy	-10.7685
australia	-10.7685
gossip	-10.7685
autentica	-10.7685
clothing	-10.7685
mirror	-10.7685
juicy	-10.7686
application	-10.7686
internal	-10.7686
counsel	-10.7687
round	-10.7688
ooqle	-10.7688
rumah	-10.7689
organic	-10.769
adventor	-10.769
yieldify	-10.769
mundo	-10.769
dragon	-10.769
shock	-10.769
▁ocsp	-10.7691
ameleo	-10.7692
▁rranking	-10.7693
animal	-10.7695
empresa	-10.7696
nexage	-10.7696
fortune	-10.7696
msnbc	-10.7701
novaon	-10.7703
writer	-10.7703
islemler	-10.7703
▁fota	-10.7706
forever	-10.771
terms	-10.771
convert	-10.7711
christ	-10.7711
▁bofa	-10.7714
novaonx	-10.7715
address	-10.7715
fgts	-10.7717
degree	-10.7721
▁udm	-10.7726
matica	-10.7729
loginpage	-10.7739
ttery	-10.774
oncustomer	-10.774
hirek	-10.7742
pbnserv	-10.7744
berry	-10.7745
always	-10.7746
targeting	-10.7753
grace	-10.7757
▁textad	-10.7758
srvkcn	-10.7763
wicz	-10.7768
ffer	-10.7772
▁dash	-10.7772
adaly	-10.7776
cruis	-10.7777
indy	-10.7777
▁oasc	-10.7784
tiger	-10.779
answers	-10.7798
tional	-10.7804
listing	-10.7806
shine	-10.7812
aaa	-10.7825
chile	-10.7832
yber	-10.7837
toplist	-10.7837
opera	-10.7845
reklama	-10.7856
rant	-10.7859
vrv	-10.7867
delta	-10.7869
▁boa	-10.7882
tobo	-10.7908
corporate	-10.7917
kho	-10.7919
zwa	-10.7936
leaf	-10.7943
servis	-10.7978
▁joe	-10.7987
outlook	-10.7989
2000.	-10.7994
.0.0	-10.7999
254	-10.8017
turk	-10.802
zip	-10.8024
enpara	-10.8034
saver	-10.808
cbc	-10.8089
turbo	-10.8133
szka	-10.8133
lang	-10.8136
gree	-10.8145
rine	-10.8153
▁digi	-10.8168
ercontent	-10.8173
corporat	-10.8189
chel	-10.8192
prd	-10.8214
kocha	-10.8217
10000	-10.8219
wola	-10.8223
paris	-10.8234
wsxzsa	-10.8254
125	-10.8268
phan	-10.8287
wash	-10.8293
american	-10.831
ulu	-10.8318
junk	-10.8328
director	-10.8329
lak	-10.837
allet	-10.8386
scotia	-10.8397
activation	-10.8399
enligne	-10.8399
wszystko	-10.8399
communication	-10.8399
industrial	-10.8399
prestige	-10.8399
restaurant	-10.8399
economic	-10.8399
telewizja	-10.8399
byethost	-10.8399
campaign	-10.8399
through	-10.8399
affiliation	-10.8399
sicherheitshilfe	-10.8399
synergy	-10.8399
fathom	-10.8399
education	-10.8399
resolutioncenter	-10.8399
defense	-10.8399
registration	-10.8399
wizard	-10.8399
fakturo	-10.8399
smaato	-10.8399
student	-10.84
problem	-10.84
football	-10.84
getmyfree	-10.84
▁sicredi	-10.84
wireless	-10.8401
enjoy	-10.8401
childalert	-10.8401
christian	-10.8401
coupon	-10.8401
galeria	-10.8401
virgin	-10.8401
simply	-10.8402
present	-10.8402
vacation	-10.8403
owanie	-10.8406
shift	-10.8409
zycie	-10.8409
bann	-10.841
netseer	-10.8412
adpia	-10.8413
conversion	-10.8414
flare	-10.8416
texas	-10.8418
horse	-10.8418
transaction	-10.842
espaceclient	-10.8421
akcja	-10.8422
second	-10.8422
orek	-10.8423
apex	-10.8428
gexin	-10.843
▁bbcdn	-10.843
monkey	-10.8434
natalk	-10.846
keyword	-10.8464
carbon	-10.8468
rose	-10.8472
zadn	-10.8478
kim	-10.8478
payu	-10.8478
drink	-10.8479
snack	-10.8481
batmobi	-10.8483
casa	-10.8485
follower	-10.8492
titan	-10.8508
kamp	-10.8514
suporte	-10.8516
clic	-10.8526
java	-10.8527
nasze	-10.8529
▁rub	-10.8534
▁mlb	-10.8536
loft	-10.8538
▁syn	-10.8553
vpp	-10.8562
cibc	-10.8582
alexa	-10.8584
waz	-10.8598
velocity	-10.8615
lice	-10.8616
163.	-10.8624
▁crm	-10.8625
iber	-10.8636
stamp	-10.8654
unn	-10.8656
tanio	-10.8675
hacker	-10.8682
▁march	-10.8718
▁clicktrack	-10.8724
ziraat	-10.8748
phorm	-10.8749
chang	-10.875
nexus	-10.8755
▁nex	-10.8764
283	-10.8766
rabi	-10.8774
odol	-10.8779
marine	-10.8785
solid	-10.8806
sonar	-10.8807
bony	-10.8818
learn	-10.8846
osob	-10.8851
allye	-10.8873
leader	-10.8908
173	-10.8913
robot	-10.8918
graphic	-10.8956
plugin	-10.8974
vale	-10.8998
106	-10.9027
▁fac	-10.9054
fara	-10.9092
sistema	-10.9129
bounce	-10.9153
etherwallet	-10.9155
institute	-10.9168
thought	-10.9168
challenge	-10.9168
empresarial	-10.9168
indonesia	-10.9168
mountain	-10.9168
▁pacific	-10.9168
industries	-10.9168
iscaddetour	-10.9168
official	-10.9168
benutzer	-10.9168
growth	-10.9168
horizon	-10.9168
incentive	-10.9168
onscroll	-10.9168
library	-10.9169
supreme	-10.9169
▁natgeo	-10.9169
foresee	-10.9169
szybki	-10.9169
wherein	-10.9169
▁levitra	-10.9169
history	-10.9169
airlines	-10.9169
unruly	-10.9169
soccer	-10.9169
diesel	-10.9169
addict	-10.9169
basket	-10.917
krakow	-10.917
archive	-10.917
broadcast	-10.917
development	-10.9171
punch	-10.9171
lounge	-10.9171
safari	-10.9172
jezyk	-10.9172
alyzer	-10.9172
ofamerica	-10.9173
▁wsback	-10.9173
contract	-10.9174
cuenta	-10.9175
fight	-10.9176
leadzu	-10.9179
basic	-10.9179
cashback	-10.9181
brook	-10.9181
legend	-10.9182
juice	-10.9183
addfree	-10.9186
bloke	-10.9186
yhdjfn	-10.9187
racing	-10.919
rocket	-10.919
bargin	-10.9194
airport	-10.9196
italy	-10.9196
▁peter	-10.9197
orig	-10.9201
tasty	-10.9204
adingo	-10.9204
darmo	-10.9205
europa	-10.9206
wielk	-10.9207
fishing	-10.9207
worth	-10.9208
dont	-10.9209
enlinea	-10.9215
scott	-10.9216
nrc	-10.923
directory	-10.9233
shark	-10.9237
▁sony	-10.9239
▁cookie	-10.9247
risk	-10.925
nutz	-10.9253
gastro	-10.9263
hire	-10.9267
levi	-10.928
begin	-10.9287
789	-10.9344
informati	-10.9345
verti	-10.9371
▁lcs	-10.9374
▁1000	-10.9394
kiss	-10.9396
radar	-10.9424
▁5-8-1	-10.9432
589	-10.9446
adjug	-10.9446
hurt	-10.9452
markt	-10.9455
eisen	-10.9461
998	-10.9475
soul	-10.9514
ewr	-10.9522
shareth	-10.9534
myetherwallet	-10.9597
credi	-10.9613
flur	-10.9623
riva	-10.963
electronic	-10.9649
126.	-10.9655
optimo	-10.966
astro	-10.9675
quiz	-10.9706
jane	-10.9707
665	-10.973
222	-10.9741
guil	-10.9745
ndra	-10.9777
parse	-10.9795
rene	-10.9797
698	-10.9797
thumb	-10.9835
holding	-10.9837
987	-10.9865
308	-10.9891
follow	-10.9895
909	-10.9897
tify	-10.9948
▁paraf	-10.9948
chef	-10.9948
▁ark	-10.9956
miasta	-10.9967
asset	-10.9968
wiadomosc	-10.997
emea	-10.9995
pomaga	-10.9996
hospital	-11.0002
poszukiwana	-11.0002
ccurthousandlast	-11.0002
exclusive	-11.0002
professional	-11.0002
influence	-11.0002
paczkomaty	-11.0002
yutility	-11.0002
▁gntbcstw	-11.0002
elektronika	-11.0002
particuliers	-11.0002
validierung	-11.0002
▁talented	-11.0002
assurance	-11.0002
residence	-11.0002
matyczn	-11.0002
mobileposse	-11.0002
authentication	-11.0002
district	-11.0002
vicodin	-11.0002
vorkehrung	-11.0002
zobacz	-11.0002
conduit	-11.0002
informje	-11.0002
undertone	-11.0002
recruit	-11.0002
gdynia	-11.0002
william	-11.0002
leather	-11.0002
league	-11.0002
privacypolicy	-11.0002
ingenier	-11.0003
statistic	-11.0003
premier	-11.0003
predictive	-11.0003
western	-11.0003
zespol	-11.0003
remote	-11.0004
eloqu	-11.0004
radius	-11.0004
spruce	-11.0004
laugh	-11.0005
snapchat	-11.0005
ligatu	-11.0005
fabric	-11.0005
lantis	-11.0005
sweep	-11.0006
feedback	-11.0006
forbes	-11.0007
promocje	-11.0008
tribal	-11.0009
▁piwi	-11.0009
zaglosuj	-11.0012
finger	-11.0012
embed	-11.0012
miami	-11.0016
▁pranking	-11.0016
spider	-11.0018
videopla	-11.0019
eczki	-11.0019
ignite	-11.0021
realtime	-11.0022
vilag	-11.0022
tlfd	-11.0023
serial	-11.0024
ncdnikj	-11.0024
milano	-11.0027
▁frank	-11.0027
mouse	-11.0027
louis	-11.0028
contextweb	-11.0029
reality	-11.0033
jfnikj	-11.0039
signup	-11.004
ruletk	-11.0041
sandbox	-11.0042
mitte	-11.0043
arrow	-11.0047
193	-11.0049
moengage	-11.0055
realtor	-11.0056
928	-11.0057
artist	-11.006
nytimes	-11.0064
bola	-11.0065
suport	-11.0071
talking	-11.0071
avast	-11.0083
alias	-11.0092
2012	-11.0095
nrjpower	-11.0097
lubl	-11.0097
▁mngi	-11.0098
infra	-11.0106
electro	-11.0106
rack	-11.0107
funny	-11.0109
miao	-11.0113
castle	-11.0119
wyci	-11.0169
signal	-11.018
rapid	-11.0191
bride	-11.0193
after	-11.0194
advertiser	-11.0196
grill	-11.0234
horas	-11.0242
solve	-11.025
tract	-11.0332
korea	-11.0343
476	-11.0364
burn	-11.0372
welt	-11.0382
kick	-11.0396
haven	-11.0396
canal	-11.0399
iwon	-11.0415
erflow	-11.043
amento	-11.0459
warning	-11.0482
kcnserv	-11.0496
etransfer	-11.0539
140	-11.0546
398	-11.0563
323	-11.0574
581	-11.0604
kush	-11.061
servfjr	-11.062
bazar	-11.0643
nend	-11.0674
onomy	-11.0684
rath	-11.0721
umble	-11.0736
lytics	-11.0808
solut	-11.0822
natura	-11.0862
wesel	-11.0898
timize	-11.0908
restauracja	-11.0911
temporary	-11.0911
▁airbnb	-11.0911
condenast	-11.0911
millennium	-11.0911
kancelaria	-11.0911
millionaire	-11.0911
voodoo	-11.0911
authenticate	-11.0911
crashlytics	-11.0911
doublepimp	-11.0911
vodafone	-11.0911
greetings	-11.0911
knowledge	-11.0911
propeller	-11.0911
tiscali	-11.0911
tegrity	-11.0911
pokemon	-11.0911
gazette	-11.0911
tapjoy	-11.0911
luxury	-11.0911
butler	-11.0911
leisure	-11.0911
gannett	-11.0911
uslugi	-11.0911
ringtone	-11.0911
button	-11.0911
hiphop	-11.0912
planning	-11.0912
hearst	-11.0912
voluumtrk	-11.0912
number	-11.0912
certifica	-11.0912
recommend	-11.0913
cluster	-11.0913
identify	-11.0913
course	-11.0914
hypno	-11.0915
guardian	-11.0915
▁msnportal	-11.0915
omosci	-11.0916
scanner	-11.0916
corner	-11.0918
locator	-11.0918
hypr	-11.0919
▁shree	-11.0919
canoe	-11.0921
horny	-11.0921
americanexpress	-11.0921
hsbc	-11.0922
tastic	-11.0922
▁xmpp	-11.0922
supplie	-11.0923
apparel	-11.0923
assist	-11.0924
quantum	-11.0925
capitalone	-11.0927
daniel	-11.0928
▁chasebank	-11.0928
▁relay	-11.0928
promocao	-11.0929
ncjkcn	-11.093
passion	-11.0931
updating	-11.0931
rungr	-11.0938
pagerank	-11.0941
rehab	-11.0942
runner	-11.0946
patrick	-11.0946
corona	-11.0951
arcade	-11.0952
series	-11.0952
zebra	-11.0953
helpdesk	-11.0955
unlocked	-11.0958
modul	-11.0959
jasmin	-11.0959
seans	-11.096
gimba	-11.0962
885	-11.0967
topsites	-11.0978
▁celeb	-11.0979
collection	-11.0984
unique	-11.0994
thebig	-11.1014
federa	-11.1017
entifi	-11.1018
single	-11.1029
kontakt	-11.104
facebok	-11.1049
ansion	-11.1079
rzesz	-11.113
afina	-11.1139
sunny	-11.1151
shake	-11.1154
alarm	-11.1166
simon	-11.125
▁adimage	-11.1258
dress	-11.1286
soso	-11.1288
obby	-11.1312
scale	-11.1387
rotato	-11.1412
tainform	-11.1459
nrjdsw	-11.1471
permu	-11.1517
pdx	-11.1527
boss	-11.1587
ugly	-11.1589
rating	-11.1599
trick	-11.1612
nanda	-11.1624
poszukiwani	-11.164
giant	-11.1769
develop	-11.1784
privat	-11.1788
airdrop	-11.1788
brothers	-11.1861
▁sicherheits	-11.1874
148	-11.1895
glosuj	-11.1899
zaginion	-11.1906
barclays	-11.1911
zdjecie	-11.1911
moviestarplanet	-11.1911
kosmety	-11.1911
kosuyolu	-11.1911
wirtualna	-11.1911
dobrapraca	-11.1911
turystyka	-11.1911
colombia	-11.1911
elektroniczn	-11.1911
historia	-11.1911
ogloszenia	-11.1911
casasbahia	-11.1911
maintenance	-11.1911
pichincha	-11.1911
yapikredi	-11.1911
newyork	-11.1911
required	-11.1911
wrestling	-11.1911
crystal	-11.1911
portfolio	-11.1911
celerator	-11.1911
strategi	-11.1911
encrypted	-11.1911
violation	-11.1911
gravity	-11.1911
miejski	-11.1911
millensban	-11.1911
garnij	-11.1911
configuration	-11.1911
▁5-6-	-11.1911
fundacja	-11.1911
▁mangler	-11.1911
▁mimageads	-11.1911
british	-11.1911
ethereum	-11.1911
rozwoj	-11.1911
chomik	-11.1911
chicago	-11.1911
calyfilm	-11.1911
▁acikdeniz	-11.1911
toronto	-11.1911
legacy	-11.1911
reebok	-11.1911
cleareducation	-11.1912
aktyw	-11.1912
deploy	-11.1912
circle	-11.1912
▁droptop	-11.1912
gdansk	-11.1912
blockchain	-11.1913
anchor	-11.1913
steelhouse	-11.1914
korona	-11.1914
darmowy	-11.1914
explore	-11.1914
mulator	-11.1914
safeguard	-11.1915
twojkurier	-11.1915
▁cancel	-11.1915
goatse	-11.1915
formula	-11.1915
whatsapp	-11.1917
florida	-11.1917
avazu	-11.1918
controller	-11.1919
critic	-11.1919
complete	-11.1921
ywhere	-11.1922
father	-11.1922
crisp	-11.1923
pocztexpolska	-11.1924
cyclo	-11.1926
pomagamy	-11.1926
trailer	-11.1928
inspir	-11.1928
random	-11.1929
▁prebid	-11.1929
dzieci	-11.193
blaze	-11.1931
renewal	-11.1932
telegraph	-11.1933
ideabank	-11.1934
dobre	-11.1935
bound	-11.1937
streamate	-11.1939
connection	-11.1939
wirus	-11.195
garanti	-11.195
women	-11.1954
facebo	-11.1956
swift	-11.1957
things	-11.196
polish	-11.1961
garage	-11.1962
disable	-11.1968
facil	-11.1968
gadget	-11.1972
smoke	-11.1972
17614	-11.1974
mainpbn	-11.1979
michel	-11.1986
wrap	-11.1987
risopr	-11.1988
riot	-11.2024
lance	-11.2037
timeinc	-11.2047
drew	-11.2048
werk	-11.2074
rash	-11.2161
▁rotat	-11.2294
060	-11.2322
andrew	-11.2326
geovisi	-11.2367
mobilsube	-11.2369
matrix	-11.2487
messag	-11.2561
725	-11.2565
646	-11.2811
gwort	-11.2969
factor	-11.299
mazowsze	-11.2998
dimension	-11.3022
subscription	-11.3022
university	-11.3022
aktualizacja	-11.3022
default	-11.3022
blizzard	-11.3022
komornik	-11.3022
noticias	-11.3022
experience	-11.3022
fairfax	-11.3022
godaddy	-11.3022
istanbul	-11.3022
syndicate	-11.3022
thinknear	-11.3022
verifikasi	-11.3022
▁firstcitizens	-11.3022
automotive	-11.3022
vorbeugung	-11.3022
▁glthub	-11.3022
hediye	-11.3022
heritage	-11.3022
universe	-11.3022
studies	-11.3022
continue	-11.3022
▁copyright	-11.3022
anuluj	-11.3022
english	-11.3022
adcentric	-11.3022
cedexis	-11.3022
standard	-11.3022
fidelity	-11.3022
facture	-11.3022
employ	-11.3022
shipping	-11.3022
python	-11.3022
enhance	-11.3022
lukasz	-11.3022
gorilla	-11.3022
fanspage	-11.3022
▁ptreklam	-11.3022
publicidad	-11.3022
fernand	-11.3023
fanatic	-11.3023
memory	-11.3023
saldao	-11.3023
vyfedera	-11.3023
cadastro	-11.3023
hardcore	-11.3024
academi	-11.3024
▁aolwb	-11.3025
▁analyzer	-11.3025
locksmith	-11.3025
technical	-11.3025
nedstat	-11.3025
pandora	-11.3025
ostumer	-11.3025
adshuff	-11.3026
folder	-11.3026
honda	-11.3027
escort	-11.3027
monarch	-11.3027
▁smtp	-11.3027
lawyer	-11.3027
promocoes	-11.3027
▁kcnikj	-11.3028
third	-11.3028
▁sarah	-11.3028
northeast	-11.3028
walmart	-11.3028
wellness	-11.3028
commander	-11.3029
recept	-11.3029
specialist	-11.3031
firefox	-11.3031
binance	-11.3031
gvt	-11.3032
▁ikjyhd	-11.3032
ildena	-11.3033
tennis	-11.3033
dubai	-11.3034
istret	-11.3035
stroy	-11.3036
court	-11.3038
bullet	-11.3044
scene	-11.3048
▁util	-11.3048
18951	-11.305
jeans	-11.3055
islem	-11.3057
liquid	-11.3062
agenci	-11.3063
equip	-11.3069
slot	-11.307
short	-11.307
practi	-11.3081
sistem	-11.3083
morgan	-11.3084
5-1	-11.3087
▁clinica	-11.3097
faith	-11.31
▁david	-11.3123
iyor	-11.3144
statement	-11.3157
ivox	-11.3163
diego	-11.319
rabbit	-11.3199
dmixer	-11.3255
▁insta	-11.3259
close	-11.3272
2006	-11.3291
monetize	-11.3314
opmarke	-11.3317
avoc	-11.3419
atfee	-11.3487
rzyj	-11.3589
▁steve	-11.3644
dswdsw	-11.3705
reference	-11.3826
▁5-8-	-11.3848
singh	-11.3876
▁analytic	-11.4038
answer	-11.4059
associate	-11.4099
picture	-11.4103
saving	-11.4112
xpose	-11.4138
scribe	-11.4143
ridge	-11.4178
skiego	-11.421
wellsfarg	-11.4253
poczt	-11.4257
gimnazjum	-11.4272
craigslist	-11.4272
sprawdziany	-11.4272
uprowadz	-11.4272
pozytyw	-11.4272
informacyjn	-11.4272
instytut	-11.4272
butyasics	-11.4272
komputer	-11.4272
najlepsze	-11.4272
altitude	-11.4272
diagnos	-11.4272
distribu	-11.4272
largetfar	-11.4272
projekt	-11.4272
qnbfinans	-11.4272
aplikacje	-11.4272
bidvertiser	-11.4272
gazetka	-11.4272
mortgage	-11.4272
porwania	-11.4272
response	-11.4272
wootric	-11.4272
cultural	-11.4272
strategy	-11.4272
prywatne	-11.4272
deutschland	-11.4272
sicurezza	-11.4272
poznan	-11.4272
banquepopulaire	-11.4272
jersey	-11.4272
edukacja	-11.4272
dostawy	-11.4272
▁5-7-	-11.4272
pakiety	-11.4272
kraina	-11.4272
smierci	-11.4272
oglosz	-11.4272
harmony	-11.4272
trampolin	-11.4272
zwierz	-11.4272
entification	-11.4272
imoveis	-11.4272
vintage	-11.4272
twenty	-11.4272
pebble	-11.4273
tongji	-11.4273
fejsa	-11.4273
minute	-11.4273
lortab	-11.4273
canadian	-11.4273
converse	-11.4273
madison	-11.4273
houston	-11.4273
nothing	-11.4273
▁viamtv	-11.4273
antenna	-11.4273
mojemiasto	-11.4273
summit	-11.4273
boutique	-11.4273
hentai	-11.4273
getacool	-11.4273
assistance	-11.4273
kernel	-11.4273
maladie	-11.4273
bundle	-11.4273
pepper	-11.4273
consultoria	-11.4274
sakura	-11.4274
skroc	-11.4274
jagoda	-11.4274
francis	-11.4274
trigger	-11.4274
cheapticket	-11.4274
alumini	-11.4274
bargain	-11.4274
pogoda	-11.4275
contabil	-11.4275
assistant	-11.4275
informer	-11.4275
terapia	-11.4275
guitar	-11.4275
kinomania	-11.4275
purple	-11.4275
leadbolt	-11.4276
▁myehte	-11.4276
password	-11.4276
summer	-11.4276
consultants	-11.4276
scholar	-11.4277
takipci	-11.4277
▁scotiabank	-11.4277
osobyzagi	-11.4278
something	-11.4279
ktopodg	-11.428
graffit	-11.428
rotary	-11.428
motyw	-11.4282
chuck	-11.4287
tructu	-11.4287
zabaw	-11.4289
freak	-11.429
study	-11.4295
applica	-11.4297
pension	-11.4298
rogers	-11.4299
appleld	-11.43
album	-11.4324
lidade	-11.4329
showlte	-11.433
ensic	-11.4346
stripe	-11.4352
apest	-11.439
bacus	-11.4402
write	-11.4444
makeup	-11.4451
xsvr	-11.4507
rower	-11.4699
ambler	-11.4709
gestion	-11.4858
perime	-11.4935
indicat	-11.5014
iedzi	-11.5126
browsing	-11.5382
crypt	-11.552
fication	-11.57
azowiec	-11.57
bloomberg	-11.5701
concrete	-11.5701
bankacilik	-11.5701
interstitial	-11.5701
przesylk	-11.5701
amplitude	-11.5701
cepteteb	-11.5701
fortunate	-11.5701
kiosked	-11.5701
manifest	-11.5701
netshelter	-11.5701
relevance	-11.5701
upgreaded	-11.5701
▁quangcao	-11.5701
fuckbook	-11.5701
independent	-11.5701
sweepstakes	-11.5701
advantage	-11.5701
deviantart	-11.5701
integral	-11.5701
intelligence	-11.5701
kaspersky	-11.5701
pittsburgh	-11.5701
progress	-11.5701
surgical	-11.5701
weightloss	-11.5701
roulette	-11.5701
columbia	-11.5701
epicgamespayp	-11.5701
department	-11.5701
wholesale	-11.5701
desconto	-11.5701
nutrition	-11.5701
tactical	-11.5701
etisalat	-11.5701
globalmailer	-11.5701
awesome	-11.5701
